{
  "version": "1.0",
  "truncation": null,
  "padding": null,
  "added_tokens": [
    {
      "id": 0,
      "content": "<unk>",
      "single_word": false,
      "lstrip": false,
      "rstrip": false,
      "normalized": false,
      "special": true
    },
    {
      "id": 1,
      "content": "§",
      "single_word": false,
      "lstrip": false,
      "rstrip": false,
      "normalized": false,
      "special": true
    },
    {
      "id": 2,
      "content": "<eos>",
      "single_word": false,
      "lstrip": false,
      "rstrip": false,
      "normalized": false,
      "special": true
    }
  ],
  "normalizer": {
    "type": "Sequence",
    "normalizers": [
      {
        "type": "NFKC"
      },
      {
        "type": "Replace",
        "pattern": {
          "Regex": "\\s+"
        },
        "content": "Ġ"
      },
      {
        "type": "Replace",
        "pattern": {
          "Regex": "(.)\\1{3,}"
        },
        "content": "…"
      }
    ]
  },
  "pre_tokenizer": {
    "type": "Sequence",
    "pretokenizers": [
      {
        "type": "Split",
        "pattern": {
          "String": "Ġ"
        },
        "behavior": "MergedWithNext",
        "invert": false
      },
      {
        "type": "Split",
        "pattern": {
          "String": "§"
        },
        "behavior": "Isolated",
        "invert": false
      },
      {
        "type": "Split",
        "pattern": {
          "Regex": "\\d|[零一二三四五六七八九十百千万亿]|\\.|\\+|\\-"
        },
        "behavior": "Isolated",
        "invert": false
      },
      {
        "type": "Split",
        "pattern": {
          "Regex": "([\\x00-\\x40\\x5B-\\x60\\x7B-\\x7F]|[^\\x00-\\xffĠ]|[\\u3002|\\uff1f|\\uff01|\\uff0c|\\u3001|\\uff1b|\\uff1a|\\u201c|\\u201d|\\u2018|\\u2019|\\uff08|\\uff09|\\u300a|\\u300b|\\u3008|\\u3009|\\u3010|\\u3011|\\u300e|\\u300f|\\u300c|\\u300d|\\ufe43|\\ufe44|\\u3014|\\u3015|\\u2026|\\u2014|\\uff5e|\\ufe4f|\\uffe5])+"
        },
        "behavior": "Isolated",
        "invert": false
      },
      {
        "type": "Split",
        "pattern": {
          "Regex": "Ġ*(\\w+|[^\\w\\sĠ]+)"
        },
        "behavior": "Isolated",
        "invert": false
      }
    ]
  },
  "post_processor": null,
  "decoder": {
    "type": "Sequence",
    "decoders": [
      {
        "type": "Replace",
        "pattern": {
          "String": "Ġ"
        },
        "content": " "
      },
      {
        "type": "ByteFallback"
      }
    ]
  },
  "model": {
    "type": "BPE",
    "dropout": null,
    "unk_token": "<unk>",
    "continuing_subword_prefix": null,
    "end_of_word_suffix": null,
    "fuse_unk": true,
    "byte_fallback": true,
    "vocab": {
      "<unk>": 0,
      "§": 1,
      "<eos>": 2,
      "<0x00>": 3,
      "<0x01>": 4,
      "<0x02>": 5,
      "<0x03>": 6,
      "<0x04>": 7,
      "<0x05>": 8,
      "<0x06>": 9,
      "<0x07>": 10,
      "<0x08>": 11,
      "<0x09>": 12,
      "<0x0A>": 13,
      "<0x0B>": 14,
      "<0x0C>": 15,
      "<0x0D>": 16,
      "<0x0E>": 17,
      "<0x0F>": 18,
      "<0x10>": 19,
      "<0x11>": 20,
      "<0x12>": 21,
      "<0x13>": 22,
      "<0x14>": 23,
      "<0x15>": 24,
      "<0x16>": 25,
      "<0x17>": 26,
      "<0x18>": 27,
      "<0x19>": 28,
      "<0x1A>": 29,
      "<0x1B>": 30,
      "<0x1C>": 31,
      "<0x1D>": 32,
      "<0x1E>": 33,
      "<0x1F>": 34,
      "<0x20>": 35,
      "<0x21>": 36,
      "<0x22>": 37,
      "<0x23>": 38,
      "<0x24>": 39,
      "<0x25>": 40,
      "<0x26>": 41,
      "<0x27>": 42,
      "<0x28>": 43,
      "<0x29>": 44,
      "<0x2A>": 45,
      "<0x2B>": 46,
      "<0x2C>": 47,
      "<0x2D>": 48,
      "<0x2E>": 49,
      "<0x2F>": 50,
      "<0x30>": 51,
      "<0x31>": 52,
      "<0x32>": 53,
      "<0x33>": 54,
      "<0x34>": 55,
      "<0x35>": 56,
      "<0x36>": 57,
      "<0x37>": 58,
      "<0x38>": 59,
      "<0x39>": 60,
      "<0x3A>": 61,
      "<0x3B>": 62,
      "<0x3C>": 63,
      "<0x3D>": 64,
      "<0x3E>": 65,
      "<0x3F>": 66,
      "<0x40>": 67,
      "<0x41>": 68,
      "<0x42>": 69,
      "<0x43>": 70,
      "<0x44>": 71,
      "<0x45>": 72,
      "<0x46>": 73,
      "<0x47>": 74,
      "<0x48>": 75,
      "<0x49>": 76,
      "<0x4A>": 77,
      "<0x4B>": 78,
      "<0x4C>": 79,
      "<0x4D>": 80,
      "<0x4E>": 81,
      "<0x4F>": 82,
      "<0x50>": 83,
      "<0x51>": 84,
      "<0x52>": 85,
      "<0x53>": 86,
      "<0x54>": 87,
      "<0x55>": 88,
      "<0x56>": 89,
      "<0x57>": 90,
      "<0x58>": 91,
      "<0x59>": 92,
      "<0x5A>": 93,
      "<0x5B>": 94,
      "<0x5C>": 95,
      "<0x5D>": 96,
      "<0x5E>": 97,
      "<0x5F>": 98,
      "<0x60>": 99,
      "<0x61>": 100,
      "<0x62>": 101,
      "<0x63>": 102,
      "<0x64>": 103,
      "<0x65>": 104,
      "<0x66>": 105,
      "<0x67>": 106,
      "<0x68>": 107,
      "<0x69>": 108,
      "<0x6A>": 109,
      "<0x6B>": 110,
      "<0x6C>": 111,
      "<0x6D>": 112,
      "<0x6E>": 113,
      "<0x6F>": 114,
      "<0x70>": 115,
      "<0x71>": 116,
      "<0x72>": 117,
      "<0x73>": 118,
      "<0x74>": 119,
      "<0x75>": 120,
      "<0x76>": 121,
      "<0x77>": 122,
      "<0x78>": 123,
      "<0x79>": 124,
      "<0x7A>": 125,
      "<0x7B>": 126,
      "<0x7C>": 127,
      "<0x7D>": 128,
      "<0x7E>": 129,
      "<0x7F>": 130,
      "<0x80>": 131,
      "<0x81>": 132,
      "<0x82>": 133,
      "<0x83>": 134,
      "<0x84>": 135,
      "<0x85>": 136,
      "<0x86>": 137,
      "<0x87>": 138,
      "<0x88>": 139,
      "<0x89>": 140,
      "<0x8A>": 141,
      "<0x8B>": 142,
      "<0x8C>": 143,
      "<0x8D>": 144,
      "<0x8E>": 145,
      "<0x8F>": 146,
      "<0x90>": 147,
      "<0x91>": 148,
      "<0x92>": 149,
      "<0x93>": 150,
      "<0x94>": 151,
      "<0x95>": 152,
      "<0x96>": 153,
      "<0x97>": 154,
      "<0x98>": 155,
      "<0x99>": 156,
      "<0x9A>": 157,
      "<0x9B>": 158,
      "<0x9C>": 159,
      "<0x9D>": 160,
      "<0x9E>": 161,
      "<0x9F>": 162,
      "<0xA0>": 163,
      "<0xA1>": 164,
      "<0xA2>": 165,
      "<0xA3>": 166,
      "<0xA4>": 167,
      "<0xA5>": 168,
      "<0xA6>": 169,
      "<0xA7>": 170,
      "<0xA8>": 171,
      "<0xA9>": 172,
      "<0xAA>": 173,
      "<0xAB>": 174,
      "<0xAC>": 175,
      "<0xAD>": 176,
      "<0xAE>": 177,
      "<0xAF>": 178,
      "<0xB0>": 179,
      "<0xB1>": 180,
      "<0xB2>": 181,
      "<0xB3>": 182,
      "<0xB4>": 183,
      "<0xB5>": 184,
      "<0xB6>": 185,
      "<0xB7>": 186,
      "<0xB8>": 187,
      "<0xB9>": 188,
      "<0xBA>": 189,
      "<0xBB>": 190,
      "<0xBC>": 191,
      "<0xBD>": 192,
      "<0xBE>": 193,
      "<0xBF>": 194,
      "<0xC0>": 195,
      "<0xC1>": 196,
      "<0xC2>": 197,
      "<0xC3>": 198,
      "<0xC4>": 199,
      "<0xC5>": 200,
      "<0xC6>": 201,
      "<0xC7>": 202,
      "<0xC8>": 203,
      "<0xC9>": 204,
      "<0xCA>": 205,
      "<0xCB>": 206,
      "<0xCC>": 207,
      "<0xCD>": 208,
      "<0xCE>": 209,
      "<0xCF>": 210,
      "<0xD0>": 211,
      "<0xD1>": 212,
      "<0xD2>": 213,
      "<0xD3>": 214,
      "<0xD4>": 215,
      "<0xD5>": 216,
      "<0xD6>": 217,
      "<0xD7>": 218,
      "<0xD8>": 219,
      "<0xD9>": 220,
      "<0xDA>": 221,
      "<0xDB>": 222,
      "<0xDC>": 223,
      "<0xDD>": 224,
      "<0xDE>": 225,
      "<0xDF>": 226,
      "<0xE0>": 227,
      "<0xE1>": 228,
      "<0xE2>": 229,
      "<0xE3>": 230,
      "<0xE4>": 231,
      "<0xE5>": 232,
      "<0xE6>": 233,
      "<0xE7>": 234,
      "<0xE8>": 235,
      "<0xE9>": 236,
      "<0xEA>": 237,
      "<0xEB>": 238,
      "<0xEC>": 239,
      "<0xED>": 240,
      "<0xEE>": 241,
      "<0xEF>": 242,
      "<0xF0>": 243,
      "<0xF1>": 244,
      "<0xF2>": 245,
      "<0xF3>": 246,
      "<0xF4>": 247,
      "<0xF5>": 248,
      "<0xF6>": 249,
      "<0xF7>": 250,
      "<0xF8>": 251,
      "<0xF9>": 252,
      "<0xFA>": 253,
      "<0xFB>": 254,
      "<0xFC>": 255,
      "<0xFD>": 256,
      "<0xFE>": 257,
      "<0xFF>": 258,
      "!": 259,
      "\"": 260,
      "#": 261,
      "$": 262,
      "%": 263,
      "&": 264,
      "'": 265,
      "(": 266,
      ")": 267,
      "*": 268,
      "+": 269,
      ",": 270,
      "-": 271,
      ".": 272,
      "/": 273,
      "0": 274,
      "1": 275,
      "2": 276,
      "3": 277,
      "4": 278,
      "5": 279,
      "6": 280,
      "7": 281,
      "8": 282,
      "9": 283,
      ":": 284,
      ";": 285,
      "<": 286,
      "=": 287,
      ">": 288,
      "?": 289,
      "@": 290,
      "A": 291,
      "B": 292,
      "C": 293,
      "D": 294,
      "E": 295,
      "F": 296,
      "G": 297,
      "H": 298,
      "I": 299,
      "J": 300,
      "K": 301,
      "L": 302,
      "M": 303,
      "N": 304,
      "O": 305,
      "P": 306,
      "Q": 307,
      "R": 308,
      "S": 309,
      "T": 310,
      "U": 311,
      "V": 312,
      "W": 313,
      "X": 314,
      "Y": 315,
      "Z": 316,
      "[": 317,
      "\\": 318,
      "]": 319,
      "^": 320,
      "_": 321,
      "`": 322,
      "a": 323,
      "b": 324,
      "c": 325,
      "d": 326,
      "e": 327,
      "f": 328,
      "g": 329,
      "h": 330,
      "i": 331,
      "j": 332,
      "k": 333,
      "l": 334,
      "m": 335,
      "n": 336,
      "o": 337,
      "p": 338,
      "q": 339,
      "r": 340,
      "s": 341,
      "t": 342,
      "u": 343,
      "v": 344,
      "w": 345,
      "x": 346,
      "y": 347,
      "z": 348,
      "{": 349,
      "|": 350,
      "}": 351,
      "~": 352,
      "": 353,
      "¡": 354,
      "£": 355,
      "¥": 356,
      "°": 357,
      "±": 358,
      "·": 359,
      "×": 360,
      "ò": 361,
      "ü": 362,
      "ā": 363,
      "Ġ": 364,
      "ī": 365,
      "ǎ": 366,
      "ǖ": 367,
      "ˇ": 368,
      "́": 369,
      "̄": 370,
      "̇": 371,
      "̈": 372,
      "Α": 373,
      "Γ": 374,
      "Π": 375,
      "Σ": 376,
      "Φ": 377,
      "Ψ": 378,
      "Ω": 379,
      "α": 380,
      "β": 381,
      "γ": 382,
      "δ": 383,
      "ε": 384,
      "θ": 385,
      "κ": 386,
      "λ": 387,
      "ν": 388,
      "ξ": 389,
      "π": 390,
      "σ": 391,
      "τ": 392,
      "χ": 393,
      "ψ": 394,
      "ω": 395,
      "В": 396,
      "У": 397,
      "а": 398,
      "в": 399,
      "д": 400,
      "е": 401,
      "и": 402,
      "м": 403,
      "н": 404,
      "о": 405,
      "р": 406,
      "с": 407,
      "т": 408,
      "ё": 409,
      "ლ": 410,
      "ღ": 411,
      "​": 412,
      "‌": 413,
      "–": 414,
      "—": 415,
      "―": 416,
      "‘": 417,
      "’": 418,
      "“": 419,
      "”": 420,
      "•": 421,
      "…": 422,
      "‧": 423,
      "′": 424,
      "※": 425,
      "‼": 426,
      "⁄": 427,
      "⁉": 428,
      "₽": 429,
      "⃣": 430,
      "™": 431,
      "ℹ": 432,
      "←": 433,
      "↑": 434,
      "→": 435,
      "↓": 436,
      "↔": 437,
      "↕": 438,
      "↖": 439,
      "↗": 440,
      "↘": 441,
      "↙": 442,
      "↩": 443,
      "↪": 444,
      "∈": 445,
      "∞": 446,
      "∥": 447,
      "∧": 448,
      "∨": 449,
      "∩": 450,
      "∪": 451,
      "∫": 452,
      "∶": 453,
      "∷": 454,
      "∼": 455,
      "∽": 456,
      "≈": 457,
      "≡": 458,
      "⊙": 459,
      "⋯": 460,
      "⌒": 461,
      "⌚": 462,
      "⌛": 463,
      "⌨": 464,
      "⏏": 465,
      "⏩": 466,
      "⏪": 467,
      "⏫": 468,
      "⏬": 469,
      "⏭": 470,
      "⏮": 471,
      "⏯": 472,
      "⏰": 473,
      "⏱": 474,
      "⏲": 475,
      "⏳": 476,
      "⏸": 477,
      "⏹": 478,
      "⏺": 479,
      "─": 480,
      "━": 481,
      "│": 482,
      "┃": 483,
      "┅": 484,
      "┉": 485,
      "┑": 486,
      "┬": 487,
      "╋": 488,
      "█": 489,
      "■": 490,
      "□": 491,
      "▪": 492,
      "▫": 493,
      "▲": 494,
      "△": 495,
      "▶": 496,
      "▼": 497,
      "▽": 498,
      "◀": 499,
      "◆": 500,
      "◇": 501,
      "○": 502,
      "◎": 503,
      "●": 504,
      "◻": 505,
      "◼": 506,
      "◽": 507,
      "◾": 508,
      "☀": 509,
      "☁": 510,
      "☂": 511,
      "☃": 512,
      "☄": 513,
      "★": 514,
      "☆": 515,
      "☎": 516,
      "☑": 517,
      "☔": 518,
      "☕": 519,
      "☘": 520,
      "☚": 521,
      "☛": 522,
      "☜": 523,
      "☝": 524,
      "☞": 525,
      "☟": 526,
      "☠": 527,
      "☢": 528,
      "☣": 529,
      "☦": 530,
      "☪": 531,
      "☫": 532,
      "☬": 533,
      "☮": 534,
      "☯": 535,
      "☰": 536,
      "☱": 537,
      "☲": 538,
      "☳": 539,
      "☴": 540,
      "☵": 541,
      "☶": 542,
      "☷": 543,
      "☸": 544,
      "☹": 545,
      "☺": 546,
      "☻": 547,
      "☼": 548,
      "☽": 549,
      "☾": 550,
      "☿": 551,
      "♀": 552,
      "♂": 553,
      "♅": 554,
      "♆": 555,
      "♇": 556,
      "♈": 557,
      "♉": 558,
      "♊": 559,
      "♋": 560,
      "♌": 561,
      "♍": 562,
      "♎": 563,
      "♏": 564,
      "♐": 565,
      "♑": 566,
      "♒": 567,
      "♓": 568,
      "♔": 569,
      "♕": 570,
      "♖": 571,
      "♗": 572,
      "♟": 573,
      "♠": 574,
      "♡": 575,
      "♣": 576,
      "♥": 577,
      "♦": 578,
      "♧": 579,
      "♨": 580,
      "♩": 581,
      "♪": 582,
      "♫": 583,
      "♬": 584,
      "♻": 585,
      "♾": 586,
      "♿": 587,
      "⚐": 588,
      "⚑": 589,
      "⚒": 590,
      "⚓": 591,
      "⚔": 592,
      "⚕": 593,
      "⚖": 594,
      "⚗": 595,
      "⚘": 596,
      "⚙": 597,
      "⚛": 598,
      "⚜": 599,
      "⚠": 600,
      "⚡": 601,
      "⚢": 602,
      "⚣": 603,
      "⚤": 604,
      "⚥": 605,
      "⚦": 606,
      "⚧": 607,
      "⚪": 608,
      "⚫": 609,
      "⚰": 610,
      "⚱": 611,
      "⚽": 612,
      "⚾": 613,
      "⚿": 614,
      "⛄": 615,
      "⛅": 616,
      "⛇": 617,
      "⛈": 618,
      "⛎": 619,
      "⛏": 620,
      "⛑": 621,
      "⛓": 622,
      "⛔": 623,
      "⛟": 624,
      "⛩": 625,
      "⛪": 626,
      "⛰": 627,
      "⛱": 628,
      "⛲": 629,
      "⛳": 630,
      "⛴": 631,
      "⛵": 632,
      "⛶": 633,
      "⛷": 634,
      "⛸": 635,
      "⛹": 636,
      "⛽": 637,
      "✂": 638,
      "✅": 639,
      "✉": 640,
      "✊": 641,
      "✋": 642,
      "✌": 643,
      "✍": 644,
      "✏": 645,
      "✒": 646,
      "✔": 647,
      "✖": 648,
      "✝": 649,
      "✡": 650,
      "✨": 651,
      "✳": 652,
      "✴": 653,
      "❄": 654,
      "❇": 655,
      "❌": 656,
      "❎": 657,
      "❓": 658,
      "❗": 659,
      "❣": 660,
      "❤": 661,
      "❥": 662,
      "❦": 663,
      "❧": 664,
      "➕": 665,
      "➖": 666,
      "➗": 667,
      "➡": 668,
      "➰": 669,
      "➿": 670,
      "⬅": 671,
      "⬆": 672,
      "⬇": 673,
      "⬛": 674,
      "⬜": 675,
      "⭐": 676,
      "⭕": 677,
      "、": 678,
      "。": 679,
      "〃": 680,
      "々": 681,
      "〇": 682,
      "〈": 683,
      "〉": 684,
      "《": 685,
      "》": 686,
      "「": 687,
      "」": 688,
      "『": 689,
      "』": 690,
      "【": 691,
      "】": 692,
      "〓": 693,
      "〔": 694,
      "〕": 695,
      "〖": 696,
      "〗": 697,
      "〜": 698,
      "〝": 699,
      "〞": 700,
      "〰": 701,
      "〽": 702,
      "ぁ": 703,
      "あ": 704,
      "ぃ": 705,
      "い": 706,
      "ぅ": 707,
      "う": 708,
      "ぇ": 709,
      "え": 710,
      "ぉ": 711,
      "お": 712,
      "か": 713,
      "が": 714,
      "き": 715,
      "ぎ": 716,
      "く": 717,
      "ぐ": 718,
      "け": 719,
      "げ": 720,
      "こ": 721,
      "ご": 722,
      "さ": 723,
      "ざ": 724,
      "し": 725,
      "じ": 726,
      "す": 727,
      "ず": 728,
      "せ": 729,
      "ぜ": 730,
      "そ": 731,
      "ぞ": 732,
      "た": 733,
      "だ": 734,
      "ち": 735,
      "ぢ": 736,
      "っ": 737,
      "つ": 738,
      "づ": 739,
      "て": 740,
      "で": 741,
      "と": 742,
      "ど": 743,
      "な": 744,
      "に": 745,
      "ぬ": 746,
      "ね": 747,
      "の": 748,
      "は": 749,
      "ば": 750,
      "ぱ": 751,
      "ひ": 752,
      "び": 753,
      "ぴ": 754,
      "ふ": 755,
      "ぶ": 756,
      "ぷ": 757,
      "へ": 758,
      "べ": 759,
      "ぺ": 760,
      "ほ": 761,
      "ぼ": 762,
      "ぽ": 763,
      "ま": 764,
      "み": 765,
      "む": 766,
      "め": 767,
      "も": 768,
      "ゃ": 769,
      "や": 770,
      "ゅ": 771,
      "ゆ": 772,
      "ょ": 773,
      "よ": 774,
      "ら": 775,
      "り": 776,
      "る": 777,
      "れ": 778,
      "ろ": 779,
      "わ": 780,
      "を": 781,
      "ん": 782,
      "゙": 783,
      "ァ": 784,
      "ア": 785,
      "ィ": 786,
      "イ": 787,
      "ゥ": 788,
      "ウ": 789,
      "ェ": 790,
      "エ": 791,
      "ォ": 792,
      "オ": 793,
      "カ": 794,
      "ガ": 795,
      "キ": 796,
      "ギ": 797,
      "ク": 798,
      "グ": 799,
      "ケ": 800,
      "ゲ": 801,
      "コ": 802,
      "ゴ": 803,
      "サ": 804,
      "ザ": 805,
      "シ": 806,
      "ジ": 807,
      "ス": 808,
      "ズ": 809,
      "セ": 810,
      "ゼ": 811,
      "ソ": 812,
      "ゾ": 813,
      "タ": 814,
      "ダ": 815,
      "チ": 816,
      "ッ": 817,
      "ツ": 818,
      "テ": 819,
      "デ": 820,
      "ト": 821,
      "ド": 822,
      "ナ": 823,
      "ニ": 824,
      "ヌ": 825,
      "ネ": 826,
      "ノ": 827,
      "ハ": 828,
      "バ": 829,
      "パ": 830,
      "ヒ": 831,
      "ビ": 832,
      "ピ": 833,
      "フ": 834,
      "ブ": 835,
      "プ": 836,
      "ヘ": 837,
      "ベ": 838,
      "ペ": 839,
      "ホ": 840,
      "ボ": 841,
      "ポ": 842,
      "マ": 843,
      "ミ": 844,
      "ム": 845,
      "メ": 846,
      "モ": 847,
      "ャ": 848,
      "ヤ": 849,
      "ュ": 850,
      "ユ": 851,
      "ョ": 852,
      "ヨ": 853,
      "ラ": 854,
      "リ": 855,
      "ル": 856,
      "レ": 857,
      "ロ": 858,
      "ワ": 859,
      "ン": 860,
      "ヴ": 861,
      "・": 862,
      "ー": 863,
      "ㄋ": 864,
      "ㄐ": 865,
      "ㄑ": 866,
      "ㄒ": 867,
      "ㄚ": 868,
      "ㄛ": 869,
      "ㄜ": 870,
      "ㄟ": 871,
      "ㄠ": 872,
      "ㄧ": 873,
      "㊗": 874,
      "㊙": 875,
      "㭴": 876,
      "一": 877,
      "丁": 878,
      "七": 879,
      "万": 880,
      "丈": 881,
      "三": 882,
      "上": 883,
      "下": 884,
      "不": 885,
      "与": 886,
      "丐": 887,
      "丑": 888,
      "专": 889,
      "且": 890,
      "丕": 891,
      "世": 892,
      "丘": 893,
      "丙": 894,
      "业": 895,
      "丛": 896,
      "东": 897,
      "丝": 898,
      "丞": 899,
      "両": 900,
      "丢": 901,
      "两": 902,
      "严": 903,
      "丧": 904,
      "丨": 905,
      "个": 906,
      "丫": 907,
      "中": 908,
      "丰": 909,
      "串": 910,
      "临": 911,
      "丶": 912,
      "丸": 913,
      "丹": 914,
      "为": 915,
      "主": 916,
      "丼": 917,
      "丽": 918,
      "举": 919,
      "乃": 920,
      "久": 921,
      "么": 922,
      "义": 923,
      "之": 924,
      "乌": 925,
      "乍": 926,
      "乎": 927,
      "乏": 928,
      "乐": 929,
      "乒": 930,
      "乓": 931,
      "乔": 932,
      "乖": 933,
      "乗": 934,
      "乘": 935,
      "乙": 936,
      "乜": 937,
      "九": 938,
      "乞": 939,
      "也": 940,
      "习": 941,
      "乡": 942,
      "书": 943,
      "买": 944,
      "乱": 945,
      "乳": 946,
      "乾": 947,
      "亀": 948,
      "了": 949,
      "予": 950,
      "争": 951,
      "事": 952,
      "二": 953,
      "亍": 954,
      "于": 955,
      "亏": 956,
      "云": 957,
      "互": 958,
      "亓": 959,
      "五": 960,
      "井": 961,
      "亘": 962,
      "亚": 963,
      "些": 964,
      "亟": 965,
      "亡": 966,
      "亢": 967,
      "交": 968,
      "亥": 969,
      "亦": 970,
      "产": 971,
      "亨": 972,
      "亩": 973,
      "享": 974,
      "京": 975,
      "亭": 976,
      "亮": 977,
      "亲": 978,
      "亳": 979,
      "亵": 980,
      "人": 981,
      "亿": 982,
      "什": 983,
      "仁": 984,
      "仄": 985,
      "仅": 986,
      "仆": 987,
      "仇": 988,
      "今": 989,
      "介": 990,
      "仍": 991,
      "从": 992,
      "仑": 993,
      "仓": 994,
      "仔": 995,
      "仕": 996,
      "他": 997,
      "仗": 998,
      "付": 999,
      "仙": 1000,
      "仞": 1001,
      "代": 1002,
      "令": 1003,
      "以": 1004,
      "仨": 1005,
      "仪": 1006,
      "们": 1007,
      "仰": 1008,
      "仲": 1009,
      "件": 1010,
      "价": 1011,
      "任": 1012,
      "份": 1013,
      "仿": 1014,
      "企": 1015,
      "伊": 1016,
      "伍": 1017,
      "伎": 1018,
      "伏": 1019,
      "伐": 1020,
      "休": 1021,
      "众": 1022,
      "优": 1023,
      "伙": 1024,
      "会": 1025,
      "伝": 1026,
      "伞": 1027,
      "伟": 1028,
      "传": 1029,
      "伢": 1030,
      "伤": 1031,
      "伦": 1032,
      "伪": 1033,
      "伫": 1034,
      "伯": 1035,
      "估": 1036,
      "伲": 1037,
      "伴": 1038,
      "伶": 1039,
      "伸": 1040,
      "伺": 1041,
      "似": 1042,
      "伽": 1043,
      "但": 1044,
      "位": 1045,
      "低": 1046,
      "住": 1047,
      "佐": 1048,
      "佑": 1049,
      "体": 1050,
      "何": 1051,
      "佗": 1052,
      "佘": 1053,
      "余": 1054,
      "佛": 1055,
      "作": 1056,
      "佝": 1057,
      "佟": 1058,
      "你": 1059,
      "佢": 1060,
      "佣": 1061,
      "佩": 1062,
      "佬": 1063,
      "佯": 1064,
      "佳": 1065,
      "佻": 1066,
      "佼": 1067,
      "使": 1068,
      "侃": 1069,
      "侄": 1070,
      "侈": 1071,
      "例": 1072,
      "侍": 1073,
      "侏": 1074,
      "侑": 1075,
      "供": 1076,
      "依": 1077,
      "侠": 1078,
      "侣": 1079,
      "侥": 1080,
      "侦": 1081,
      "侧": 1082,
      "侨": 1083,
      "侬": 1084,
      "侮": 1085,
      "侯": 1086,
      "侵": 1087,
      "便": 1088,
      "促": 1089,
      "俄": 1090,
      "俅": 1091,
      "俊": 1092,
      "俏": 1093,
      "俐": 1094,
      "俑": 1095,
      "俗": 1096,
      "俘": 1097,
      "俚": 1098,
      "保": 1099,
      "俞": 1100,
      "俟": 1101,
      "信": 1102,
      "俦": 1103,
      "俨": 1104,
      "俩": 1105,
      "俪": 1106,
      "俭": 1107,
      "修": 1108,
      "俯": 1109,
      "俱": 1110,
      "俸": 1111,
      "俺": 1112,
      "俾": 1113,
      "倌": 1114,
      "倍": 1115,
      "倏": 1116,
      "倒": 1117,
      "倔": 1118,
      "倘": 1119,
      "候": 1120,
      "倚": 1121,
      "倜": 1122,
      "借": 1123,
      "倡": 1124,
      "値": 1125,
      "倦": 1126,
      "倨": 1127,
      "倩": 1128,
      "倪": 1129,
      "倭": 1130,
      "债": 1131,
      "值": 1132,
      "倾": 1133,
      "偃": 1134,
      "假": 1135,
      "偌": 1136,
      "偎": 1137,
      "偏": 1138,
      "偕": 1139,
      "做": 1140,
      "停": 1141,
      "健": 1142,
      "偶": 1143,
      "偷": 1144,
      "偻": 1145,
      "偾": 1146,
      "偿": 1147,
      "傀": 1148,
      "傅": 1149,
      "傍": 1150,
      "傥": 1151,
      "储": 1152,
      "傩": 1153,
      "催": 1154,
      "傲": 1155,
      "傻": 1156,
      "像": 1157,
      "僚": 1158,
      "僧": 1159,
      "僭": 1160,
      "僮": 1161,
      "僵": 1162,
      "僻": 1163,
      "儒": 1164,
      "儡": 1165,
      "儿": 1166,
      "兀": 1167,
      "允": 1168,
      "元": 1169,
      "兄": 1170,
      "充": 1171,
      "兆": 1172,
      "先": 1173,
      "光": 1174,
      "克": 1175,
      "免": 1176,
      "兑": 1177,
      "兔": 1178,
      "党": 1179,
      "兜": 1180,
      "兢": 1181,
      "入": 1182,
      "全": 1183,
      "八": 1184,
      "公": 1185,
      "六": 1186,
      "兮": 1187,
      "兰": 1188,
      "共": 1189,
      "关": 1190,
      "兴": 1191,
      "兵": 1192,
      "其": 1193,
      "具": 1194,
      "典": 1195,
      "兹": 1196,
      "养": 1197,
      "兼": 1198,
      "兽": 1199,
      "冀": 1200,
      "内": 1201,
      "冇": 1202,
      "冈": 1203,
      "冉": 1204,
      "册": 1205,
      "再": 1206,
      "冒": 1207,
      "冕": 1208,
      "冗": 1209,
      "写": 1210,
      "军": 1211,
      "农": 1212,
      "冠": 1213,
      "冢": 1214,
      "冤": 1215,
      "冥": 1216,
      "冬": 1217,
      "冯": 1218,
      "冰": 1219,
      "冲": 1220,
      "决": 1221,
      "冴": 1222,
      "况": 1223,
      "冶": 1224,
      "冷": 1225,
      "冻": 1226,
      "冼": 1227,
      "冽": 1228,
      "净": 1229,
      "凄": 1230,
      "准": 1231,
      "凇": 1232,
      "凉": 1233,
      "凋": 1234,
      "凌": 1235,
      "减": 1236,
      "凑": 1237,
      "凛": 1238,
      "凝": 1239,
      "几": 1240,
      "凡": 1241,
      "凤": 1242,
      "処": 1243,
      "凪": 1244,
      "凫": 1245,
      "凭": 1246,
      "凯": 1247,
      "凰": 1248,
      "凳": 1249,
      "凵": 1250,
      "凶": 1251,
      "凸": 1252,
      "凹": 1253,
      "出": 1254,
      "击": 1255,
      "函": 1256,
      "凿": 1257,
      "刀": 1258,
      "刁": 1259,
      "刃": 1260,
      "分": 1261,
      "切": 1262,
      "刈": 1263,
      "刊": 1264,
      "刑": 1265,
      "划": 1266,
      "刖": 1267,
      "列": 1268,
      "刘": 1269,
      "则": 1270,
      "刚": 1271,
      "创": 1272,
      "初": 1273,
      "删": 1274,
      "判": 1275,
      "刨": 1276,
      "利": 1277,
      "别": 1278,
      "刮": 1279,
      "到": 1280,
      "制": 1281,
      "刷": 1282,
      "券": 1283,
      "刹": 1284,
      "刺": 1285,
      "刻": 1286,
      "刽": 1287,
      "剁": 1288,
      "剂": 1289,
      "剃": 1290,
      "削": 1291,
      "剌": 1292,
      "前": 1293,
      "剐": 1294,
      "剑": 1295,
      "剔": 1296,
      "剖": 1297,
      "剜": 1298,
      "剣": 1299,
      "剥": 1300,
      "剧": 1301,
      "剩": 1302,
      "剪": 1303,
      "副": 1304,
      "割": 1305,
      "剽": 1306,
      "剿": 1307,
      "劈": 1308,
      "力": 1309,
      "劝": 1310,
      "办": 1311,
      "功": 1312,
      "加": 1313,
      "务": 1314,
      "劣": 1315,
      "动": 1316,
      "助": 1317,
      "努": 1318,
      "劫": 1319,
      "励": 1320,
      "劲": 1321,
      "劳": 1322,
      "効": 1323,
      "势": 1324,
      "勃": 1325,
      "勇": 1326,
      "勉": 1327,
      "勋": 1328,
      "勐": 1329,
      "勒": 1330,
      "勘": 1331,
      "募": 1332,
      "勤": 1333,
      "勺": 1334,
      "勾": 1335,
      "勿": 1336,
      "匀": 1337,
      "匂": 1338,
      "包": 1339,
      "匆": 1340,
      "匈": 1341,
      "匍": 1342,
      "匐": 1343,
      "匕": 1344,
      "化": 1345,
      "北": 1346,
      "匙": 1347,
      "匝": 1348,
      "匠": 1349,
      "匡": 1350,
      "匣": 1351,
      "匪": 1352,
      "匮": 1353,
      "匹": 1354,
      "区": 1355,
      "医": 1356,
      "匾": 1357,
      "匿": 1358,
      "十": 1359,
      "千": 1360,
      "升": 1361,
      "午": 1362,
      "卉": 1363,
      "半": 1364,
      "卍": 1365,
      "华": 1366,
      "协": 1367,
      "卑": 1368,
      "卒": 1369,
      "卓": 1370,
      "单": 1371,
      "卖": 1372,
      "南": 1373,
      "単": 1374,
      "博": 1375,
      "卜": 1376,
      "卞": 1377,
      "卟": 1378,
      "占": 1379,
      "卡": 1380,
      "卢": 1381,
      "卤": 1382,
      "卦": 1383,
      "卧": 1384,
      "卫": 1385,
      "卯": 1386,
      "印": 1387,
      "危": 1388,
      "即": 1389,
      "却": 1390,
      "卵": 1391,
      "卷": 1392,
      "卸": 1393,
      "卿": 1394,
      "厂": 1395,
      "厄": 1396,
      "厅": 1397,
      "历": 1398,
      "厉": 1399,
      "压": 1400,
      "厌": 1401,
      "厕": 1402,
      "厘": 1403,
      "厚": 1404,
      "厝": 1405,
      "原": 1406,
      "厢": 1407,
      "厣": 1408,
      "厥": 1409,
      "厦": 1410,
      "厨": 1411,
      "厩": 1412,
      "厮": 1413,
      "去": 1414,
      "县": 1415,
      "叁": 1416,
      "参": 1417,
      "又": 1418,
      "叉": 1419,
      "及": 1420,
      "友": 1421,
      "双": 1422,
      "反": 1423,
      "収": 1424,
      "发": 1425,
      "叔": 1426,
      "取": 1427,
      "受": 1428,
      "变": 1429,
      "叙": 1430,
      "叛": 1431,
      "叟": 1432,
      "叠": 1433,
      "叡": 1434,
      "口": 1435,
      "古": 1436,
      "句": 1437,
      "另": 1438,
      "叨": 1439,
      "叩": 1440,
      "只": 1441,
      "叫": 1442,
      "召": 1443,
      "叭": 1444,
      "叮": 1445,
      "可": 1446,
      "台": 1447,
      "叱": 1448,
      "史": 1449,
      "右": 1450,
      "叶": 1451,
      "号": 1452,
      "司": 1453,
      "叹": 1454,
      "叻": 1455,
      "叼": 1456,
      "叽": 1457,
      "吁": 1458,
      "吃": 1459,
      "各": 1460,
      "吆": 1461,
      "合": 1462,
      "吉": 1463,
      "吊": 1464,
      "吋": 1465,
      "同": 1466,
      "名": 1467,
      "后": 1468,
      "吏": 1469,
      "吐": 1470,
      "向": 1471,
      "吒": 1472,
      "吓": 1473,
      "吔": 1474,
      "吕": 1475,
      "吖": 1476,
      "吗": 1477,
      "吚": 1478,
      "君": 1479,
      "吝": 1480,
      "吞": 1481,
      "吟": 1482,
      "吠": 1483,
      "吡": 1484,
      "否": 1485,
      "吧": 1486,
      "吨": 1487,
      "吩": 1488,
      "含": 1489,
      "听": 1490,
      "吭": 1491,
      "吮": 1492,
      "启": 1493,
      "吱": 1494,
      "吴": 1495,
      "吵": 1496,
      "吸": 1497,
      "吹": 1498,
      "吻": 1499,
      "吼": 1500,
      "吾": 1501,
      "呀": 1502,
      "呃": 1503,
      "呆": 1504,
      "呈": 1505,
      "告": 1506,
      "呋": 1507,
      "呎": 1508,
      "呐": 1509,
      "呑": 1510,
      "呒": 1511,
      "呓": 1512,
      "呔": 1513,
      "呕": 1514,
      "呗": 1515,
      "员": 1516,
      "呛": 1517,
      "呜": 1518,
      "呢": 1519,
      "呣": 1520,
      "呤": 1521,
      "呦": 1522,
      "周": 1523,
      "呪": 1524,
      "呯": 1525,
      "呱": 1526,
      "呲": 1527,
      "味": 1528,
      "呵": 1529,
      "呶": 1530,
      "呷": 1531,
      "呸": 1532,
      "呻": 1533,
      "呼": 1534,
      "命": 1535,
      "咀": 1536,
      "咁": 1537,
      "咂": 1538,
      "咄": 1539,
      "咆": 1540,
      "咋": 1541,
      "和": 1542,
      "咎": 1543,
      "咏": 1544,
      "咐": 1545,
      "咒": 1546,
      "咔": 1547,
      "咕": 1548,
      "咖": 1549,
      "咗": 1550,
      "咘": 1551,
      "咙": 1552,
      "咚": 1553,
      "咛": 1554,
      "咝": 1555,
      "咣": 1556,
      "咤": 1557,
      "咥": 1558,
      "咦": 1559,
      "咧": 1560,
      "咨": 1561,
      "咩": 1562,
      "咪": 1563,
      "咫": 1564,
      "咬": 1565,
      "咭": 1566,
      "咯": 1567,
      "咱": 1568,
      "咲": 1569,
      "咳": 1570,
      "咴": 1571,
      "咸": 1572,
      "咻": 1573,
      "咽": 1574,
      "咿": 1575,
      "哀": 1576,
      "品": 1577,
      "哂": 1578,
      "哄": 1579,
      "哆": 1580,
      "哇": 1581,
      "哈": 1582,
      "哉": 1583,
      "响": 1584,
      "哎": 1585,
      "哐": 1586,
      "哑": 1587,
      "哒": 1588,
      "哔": 1589,
      "哗": 1590,
      "哝": 1591,
      "哞": 1592,
      "哟": 1593,
      "哢": 1594,
      "哥": 1595,
      "哦": 1596,
      "哧": 1597,
      "哨": 1598,
      "哩": 1599,
      "哪": 1600,
      "哭": 1601,
      "哮": 1602,
      "哲": 1603,
      "哺": 1604,
      "哼": 1605,
      "哽": 1606,
      "唆": 1607,
      "唇": 1608,
      "唉": 1609,
      "唏": 1610,
      "唐": 1611,
      "唔": 1612,
      "唠": 1613,
      "唤": 1614,
      "唧": 1615,
      "唬": 1616,
      "售": 1617,
      "唯": 1618,
      "唰": 1619,
      "唱": 1620,
      "唷": 1621,
      "唾": 1622,
      "唿": 1623,
      "啃": 1624,
      "啄": 1625,
      "商": 1626,
      "啊": 1627,
      "啐": 1628,
      "啕": 1629,
      "啖": 1630,
      "啜": 1631,
      "啡": 1632,
      "啤": 1633,
      "啥": 1634,
      "啦": 1635,
      "啧": 1636,
      "啪": 1637,
      "啬": 1638,
      "啮": 1639,
      "啯": 1640,
      "啰": 1641,
      "啲": 1642,
      "啵": 1643,
      "啷": 1644,
      "啸": 1645,
      "啻": 1646,
      "啼": 1647,
      "啾": 1648,
      "喀": 1649,
      "喁": 1650,
      "喂": 1651,
      "喃": 1652,
      "善": 1653,
      "喇": 1654,
      "喉": 1655,
      "喊": 1656,
      "喋": 1657,
      "喏": 1658,
      "喔": 1659,
      "喘": 1660,
      "喙": 1661,
      "喜": 1662,
      "喝": 1663,
      "喟": 1664,
      "喧": 1665,
      "喰": 1666,
      "喱": 1667,
      "喳": 1668,
      "喵": 1669,
      "喷": 1670,
      "喻": 1671,
      "喽": 1672,
      "嗄": 1673,
      "嗅": 1674,
      "嗉": 1675,
      "嗑": 1676,
      "嗒": 1677,
      "嗓": 1678,
      "嗔": 1679,
      "嗖": 1680,
      "嗜": 1681,
      "嗝": 1682,
      "嗞": 1683,
      "嗟": 1684,
      "嗡": 1685,
      "嗣": 1686,
      "嗤": 1687,
      "嗦": 1688,
      "嗨": 1689,
      "嗪": 1690,
      "嗫": 1691,
      "嗬": 1692,
      "嗯": 1693,
      "嗲": 1694,
      "嗳": 1695,
      "嗵": 1696,
      "嗷": 1697,
      "嗽": 1698,
      "嘀": 1699,
      "嘁": 1700,
      "嘅": 1701,
      "嘈": 1702,
      "嘉": 1703,
      "嘎": 1704,
      "嘘": 1705,
      "嘚": 1706,
      "嘛": 1707,
      "嘞": 1708,
      "嘟": 1709,
      "嘢": 1710,
      "嘣": 1711,
      "嘤": 1712,
      "嘬": 1713,
      "嘭": 1714,
      "嘱": 1715,
      "嘲": 1716,
      "嘴": 1717,
      "嘶": 1718,
      "嘹": 1719,
      "嘻": 1720,
      "嘿": 1721,
      "噌": 1722,
      "噎": 1723,
      "噔": 1724,
      "噗": 1725,
      "噘": 1726,
      "噙": 1727,
      "噛": 1728,
      "噜": 1729,
      "噢": 1730,
      "噤": 1731,
      "器": 1732,
      "噩": 1733,
      "噪": 1734,
      "噫": 1735,
      "噬": 1736,
      "噱": 1737,
      "噶": 1738,
      "噼": 1739,
      "嚅": 1740,
      "嚎": 1741,
      "嚏": 1742,
      "嚓": 1743,
      "嚟": 1744,
      "嚣": 1745,
      "嚯": 1746,
      "嚷": 1747,
      "嚼": 1748,
      "囊": 1749,
      "囔": 1750,
      "囗": 1751,
      "囚": 1752,
      "四": 1753,
      "回": 1754,
      "因": 1755,
      "囡": 1756,
      "团": 1757,
      "団": 1758,
      "囤": 1759,
      "囧": 1760,
      "囫": 1761,
      "园": 1762,
      "困": 1763,
      "囱": 1764,
      "囲": 1765,
      "围": 1766,
      "囵": 1767,
      "固": 1768,
      "国": 1769,
      "图": 1770,
      "圃": 1771,
      "圆": 1772,
      "圈": 1773,
      "圜": 1774,
      "土": 1775,
      "圣": 1776,
      "圧": 1777,
      "在": 1778,
      "圭": 1779,
      "地": 1780,
      "圳": 1781,
      "场": 1782,
      "圾": 1783,
      "址": 1784,
      "坂": 1785,
      "均": 1786,
      "坊": 1787,
      "坍": 1788,
      "坎": 1789,
      "坏": 1790,
      "坐": 1791,
      "坑": 1792,
      "块": 1793,
      "坚": 1794,
      "坛": 1795,
      "坝": 1796,
      "坞": 1797,
      "坟": 1798,
      "坠": 1799,
      "坡": 1800,
      "坤": 1801,
      "坦": 1802,
      "坨": 1803,
      "坪": 1804,
      "坳": 1805,
      "坷": 1806,
      "垂": 1807,
      "垃": 1808,
      "垄": 1809,
      "型": 1810,
      "垒": 1811,
      "垠": 1812,
      "垡": 1813,
      "垢": 1814,
      "垦": 1815,
      "垫": 1816,
      "垭": 1817,
      "垮": 1818,
      "埂": 1819,
      "埃": 1820,
      "埋": 1821,
      "城": 1822,
      "域": 1823,
      "埠": 1824,
      "培": 1825,
      "基": 1826,
      "埽": 1827,
      "堀": 1828,
      "堂": 1829,
      "堆": 1830,
      "堇": 1831,
      "堋": 1832,
      "堑": 1833,
      "堕": 1834,
      "堡": 1835,
      "堤": 1836,
      "堪": 1837,
      "堵": 1838,
      "塌": 1839,
      "塑": 1840,
      "塔": 1841,
      "塘": 1842,
      "塞": 1843,
      "填": 1844,
      "境": 1845,
      "墅": 1846,
      "墒": 1847,
      "墓": 1848,
      "増": 1849,
      "墙": 1850,
      "增": 1851,
      "墟": 1852,
      "墨": 1853,
      "墩": 1854,
      "壁": 1855,
      "壊": 1856,
      "壑": 1857,
      "壤": 1858,
      "士": 1859,
      "壬": 1860,
      "壮": 1861,
      "声": 1862,
      "壳": 1863,
      "壶": 1864,
      "壹": 1865,
      "处": 1866,
      "备": 1867,
      "変": 1868,
      "复": 1869,
      "夏": 1870,
      "夔": 1871,
      "夕": 1872,
      "外": 1873,
      "夙": 1874,
      "多": 1875,
      "夜": 1876,
      "够": 1877,
      "大": 1878,
      "天": 1879,
      "太": 1880,
      "夫": 1881,
      "夭": 1882,
      "央": 1883,
      "夯": 1884,
      "失": 1885,
      "头": 1886,
      "夷": 1887,
      "夸": 1888,
      "夹": 1889,
      "夺": 1890,
      "奂": 1891,
      "奄": 1892,
      "奇": 1893,
      "奈": 1894,
      "奉": 1895,
      "奋": 1896,
      "奎": 1897,
      "奏": 1898,
      "契": 1899,
      "奔": 1900,
      "奕": 1901,
      "奖": 1902,
      "套": 1903,
      "奘": 1904,
      "奚": 1905,
      "奠": 1906,
      "奢": 1907,
      "奥": 1908,
      "女": 1909,
      "奴": 1910,
      "奶": 1911,
      "奸": 1912,
      "她": 1913,
      "好": 1914,
      "如": 1915,
      "妃": 1916,
      "妄": 1917,
      "妆": 1918,
      "妇": 1919,
      "妈": 1920,
      "妊": 1921,
      "妍": 1922,
      "妒": 1923,
      "妓": 1924,
      "妖": 1925,
      "妗": 1926,
      "妙": 1927,
      "妞": 1928,
      "妤": 1929,
      "妥": 1930,
      "妧": 1931,
      "妨": 1932,
      "妩": 1933,
      "妪": 1934,
      "妫": 1935,
      "妮": 1936,
      "妲": 1937,
      "妳": 1938,
      "妹": 1939,
      "妻": 1940,
      "妼": 1941,
      "妾": 1942,
      "姄": 1943,
      "姆": 1944,
      "姈": 1945,
      "姉": 1946,
      "姊": 1947,
      "始": 1948,
      "姌": 1949,
      "姐": 1950,
      "姑": 1951,
      "姒": 1952,
      "姓": 1953,
      "委": 1954,
      "姗": 1955,
      "姘": 1956,
      "姚": 1957,
      "姜": 1958,
      "姝": 1959,
      "姣": 1960,
      "姥": 1961,
      "姨": 1962,
      "姪": 1963,
      "姫": 1964,
      "姬": 1965,
      "姮": 1966,
      "姹": 1967,
      "姻": 1968,
      "姿": 1969,
      "威": 1970,
      "娃": 1971,
      "娄": 1972,
      "娅": 1973,
      "娆": 1974,
      "娇": 1975,
      "娈": 1976,
      "娉": 1977,
      "娑": 1978,
      "娓": 1979,
      "娘": 1980,
      "娜": 1981,
      "娟": 1982,
      "娠": 1983,
      "娣": 1984,
      "娥": 1985,
      "娩": 1986,
      "娱": 1987,
      "娲": 1988,
      "娴": 1989,
      "娶": 1990,
      "娼": 1991,
      "婀": 1992,
      "婆": 1993,
      "婉": 1994,
      "婊": 1995,
      "婕": 1996,
      "婚": 1997,
      "婠": 1998,
      "婢": 1999,
      "婥": 2000,
      "婧": 2001,
      "婪": 2002,
      "婳": 2003,
      "婴": 2004,
      "婵": 2005,
      "婶": 2006,
      "婷": 2007,
      "婺": 2008,
      "婼": 2009,
      "婿": 2010,
      "媒": 2011,
      "媗": 2012,
      "媚": 2013,
      "媛": 2014,
      "媞": 2015,
      "媱": 2016,
      "媲": 2017,
      "媳": 2018,
      "媸": 2019,
      "媾": 2020,
      "嫀": 2021,
      "嫁": 2022,
      "嫂": 2023,
      "嫉": 2024,
      "嫌": 2025,
      "嫒": 2026,
      "嫔": 2027,
      "嫖": 2028,
      "嫙": 2029,
      "嫚": 2030,
      "嫠": 2031,
      "嫡": 2032,
      "嫣": 2033,
      "嫤": 2034,
      "嫦": 2035,
      "嫩": 2036,
      "嫰": 2037,
      "嫱": 2038,
      "嬉": 2039,
      "嬛": 2040,
      "嬢": 2041,
      "嬲": 2042,
      "嬴": 2043,
      "嬷": 2044,
      "嬿": 2045,
      "子": 2046,
      "孔": 2047,
      "孕": 2048,
      "字": 2049,
      "存": 2050,
      "孙": 2051,
      "孛": 2052,
      "孜": 2053,
      "孝": 2054,
      "孟": 2055,
      "季": 2056,
      "孤": 2057,
      "学": 2058,
      "孩": 2059,
      "孪": 2060,
      "孬": 2061,
      "孰": 2062,
      "孱": 2063,
      "孵": 2064,
      "孽": 2065,
      "宁": 2066,
      "它": 2067,
      "宅": 2068,
      "宇": 2069,
      "守": 2070,
      "安": 2071,
      "宋": 2072,
      "完": 2073,
      "宏": 2074,
      "宓": 2075,
      "宕": 2076,
      "宗": 2077,
      "官": 2078,
      "宙": 2079,
      "定": 2080,
      "宛": 2081,
      "宜": 2082,
      "宝": 2083,
      "实": 2084,
      "実": 2085,
      "宠": 2086,
      "审": 2087,
      "客": 2088,
      "宣": 2089,
      "室": 2090,
      "宥": 2091,
      "宦": 2092,
      "宪": 2093,
      "宫": 2094,
      "宰": 2095,
      "害": 2096,
      "宴": 2097,
      "宵": 2098,
      "家": 2099,
      "宸": 2100,
      "容": 2101,
      "宽": 2102,
      "宾": 2103,
      "宿": 2104,
      "寂": 2105,
      "寄": 2106,
      "寅": 2107,
      "密": 2108,
      "寇": 2109,
      "富": 2110,
      "寐": 2111,
      "寒": 2112,
      "寓": 2113,
      "寝": 2114,
      "寞": 2115,
      "察": 2116,
      "寡": 2117,
      "寤": 2118,
      "寥": 2119,
      "寨": 2120,
      "寮": 2121,
      "寰": 2122,
      "寸": 2123,
      "对": 2124,
      "寺": 2125,
      "寻": 2126,
      "导": 2127,
      "対": 2128,
      "寿": 2129,
      "封": 2130,
      "射": 2131,
      "将": 2132,
      "尉": 2133,
      "尊": 2134,
      "小": 2135,
      "少": 2136,
      "尓": 2137,
      "尔": 2138,
      "尖": 2139,
      "尘": 2140,
      "尚": 2141,
      "尝": 2142,
      "尤": 2143,
      "尧": 2144,
      "尬": 2145,
      "就": 2146,
      "尴": 2147,
      "尸": 2148,
      "尹": 2149,
      "尺": 2150,
      "尻": 2151,
      "尼": 2152,
      "尽": 2153,
      "尾": 2154,
      "尿": 2155,
      "局": 2156,
      "屁": 2157,
      "层": 2158,
      "屄": 2159,
      "居": 2160,
      "屈": 2161,
      "屉": 2162,
      "届": 2163,
      "屋": 2164,
      "屌": 2165,
      "屎": 2166,
      "屏": 2167,
      "屐": 2168,
      "屑": 2169,
      "展": 2170,
      "屙": 2171,
      "属": 2172,
      "屠": 2173,
      "屡": 2174,
      "履": 2175,
      "屯": 2176,
      "山": 2177,
      "屹": 2178,
      "屿": 2179,
      "岀": 2180,
      "岁": 2181,
      "岂": 2182,
      "岌": 2183,
      "岐": 2184,
      "岑": 2185,
      "岔": 2186,
      "岖": 2187,
      "岗": 2188,
      "岚": 2189,
      "岛": 2190,
      "岩": 2191,
      "岫": 2192,
      "岬": 2193,
      "岭": 2194,
      "岱": 2195,
      "岳": 2196,
      "岸": 2197,
      "峋": 2198,
      "峒": 2199,
      "峙": 2200,
      "峡": 2201,
      "峥": 2202,
      "峦": 2203,
      "峨": 2204,
      "峪": 2205,
      "峭": 2206,
      "峰": 2207,
      "峻": 2208,
      "崂": 2209,
      "崆": 2210,
      "崇": 2211,
      "崎": 2212,
      "崔": 2213,
      "崖": 2214,
      "崛": 2215,
      "崦": 2216,
      "崩": 2217,
      "崭": 2218,
      "崴": 2219,
      "崽": 2220,
      "嵋": 2221,
      "嵌": 2222,
      "嵘": 2223,
      "嵩": 2224,
      "嵴": 2225,
      "嶂": 2226,
      "嶙": 2227,
      "巅": 2228,
      "巍": 2229,
      "川": 2230,
      "州": 2231,
      "巡": 2232,
      "巢": 2233,
      "工": 2234,
      "左": 2235,
      "巧": 2236,
      "巨": 2237,
      "巩": 2238,
      "巫": 2239,
      "差": 2240,
      "己": 2241,
      "已": 2242,
      "巳": 2243,
      "巴": 2244,
      "巷": 2245,
      "巻": 2246,
      "巽": 2247,
      "巾": 2248,
      "币": 2249,
      "市": 2250,
      "布": 2251,
      "帅": 2252,
      "帆": 2253,
      "师": 2254,
      "希": 2255,
      "帏": 2256,
      "帐": 2257,
      "帕": 2258,
      "帖": 2259,
      "帘": 2260,
      "帚": 2261,
      "帛": 2262,
      "帜": 2263,
      "帝": 2264,
      "带": 2265,
      "帧": 2266,
      "席": 2267,
      "帮": 2268,
      "帯": 2269,
      "帰": 2270,
      "帷": 2271,
      "常": 2272,
      "帼": 2273,
      "帽": 2274,
      "幂": 2275,
      "幄": 2276,
      "幅": 2277,
      "幌": 2278,
      "幔": 2279,
      "幕": 2280,
      "幡": 2281,
      "幢": 2282,
      "干": 2283,
      "平": 2284,
      "年": 2285,
      "并": 2286,
      "幸": 2287,
      "幺": 2288,
      "幻": 2289,
      "幼": 2290,
      "幽": 2291,
      "广": 2292,
      "広": 2293,
      "庄": 2294,
      "庆": 2295,
      "庇": 2296,
      "床": 2297,
      "庋": 2298,
      "序": 2299,
      "庐": 2300,
      "库": 2301,
      "应": 2302,
      "底": 2303,
      "庖": 2304,
      "店": 2305,
      "庙": 2306,
      "庚": 2307,
      "府": 2308,
      "庞": 2309,
      "废": 2310,
      "庠": 2311,
      "度": 2312,
      "座": 2313,
      "庭": 2314,
      "庵": 2315,
      "庶": 2316,
      "康": 2317,
      "庸": 2318,
      "庾": 2319,
      "廉": 2320,
      "廊": 2321,
      "廓": 2322,
      "廖": 2323,
      "廴": 2324,
      "延": 2325,
      "廷": 2326,
      "建": 2327,
      "廿": 2328,
      "开": 2329,
      "弁": 2330,
      "异": 2331,
      "弃": 2332,
      "弄": 2333,
      "弈": 2334,
      "弊": 2335,
      "弋": 2336,
      "式": 2337,
      "弑": 2338,
      "弓": 2339,
      "引": 2340,
      "弗": 2341,
      "弘": 2342,
      "弛": 2343,
      "弟": 2344,
      "张": 2345,
      "弥": 2346,
      "弦": 2347,
      "弧": 2348,
      "弩": 2349,
      "弭": 2350,
      "弯": 2351,
      "弱": 2352,
      "弹": 2353,
      "强": 2354,
      "弼": 2355,
      "弾": 2356,
      "彀": 2357,
      "归": 2358,
      "当": 2359,
      "录": 2360,
      "彗": 2361,
      "彘": 2362,
      "形": 2363,
      "彤": 2364,
      "彦": 2365,
      "彧": 2366,
      "彩": 2367,
      "彪": 2368,
      "彬": 2369,
      "彭": 2370,
      "彰": 2371,
      "影": 2372,
      "彷": 2373,
      "役": 2374,
      "彻": 2375,
      "彼": 2376,
      "往": 2377,
      "征": 2378,
      "径": 2379,
      "待": 2380,
      "很": 2381,
      "徉": 2382,
      "徊": 2383,
      "律": 2384,
      "徐": 2385,
      "徒": 2386,
      "従": 2387,
      "得": 2388,
      "徘": 2389,
      "徜": 2390,
      "御": 2391,
      "徨": 2392,
      "循": 2393,
      "微": 2394,
      "徳": 2395,
      "德": 2396,
      "徽": 2397,
      "心": 2398,
      "必": 2399,
      "忆": 2400,
      "忌": 2401,
      "忍": 2402,
      "忏": 2403,
      "忐": 2404,
      "忑": 2405,
      "忒": 2406,
      "忖": 2407,
      "志": 2408,
      "忘": 2409,
      "忙": 2410,
      "応": 2411,
      "忝": 2412,
      "忠": 2413,
      "忡": 2414,
      "忤": 2415,
      "忧": 2416,
      "忪": 2417,
      "快": 2418,
      "忱": 2419,
      "念": 2420,
      "忸": 2421,
      "忻": 2422,
      "忽": 2423,
      "忿": 2424,
      "怀": 2425,
      "态": 2426,
      "怂": 2427,
      "怅": 2428,
      "怆": 2429,
      "怎": 2430,
      "怒": 2431,
      "怔": 2432,
      "怕": 2433,
      "怖": 2434,
      "怛": 2435,
      "怜": 2436,
      "思": 2437,
      "怠": 2438,
      "怡": 2439,
      "急": 2440,
      "怦": 2441,
      "性": 2442,
      "怨": 2443,
      "怩": 2444,
      "怪": 2445,
      "怯": 2446,
      "怵": 2447,
      "总": 2448,
      "怼": 2449,
      "恁": 2450,
      "恂": 2451,
      "恃": 2452,
      "恋": 2453,
      "恍": 2454,
      "恐": 2455,
      "恒": 2456,
      "恕": 2457,
      "恙": 2458,
      "恚": 2459,
      "恢": 2460,
      "恣": 2461,
      "恤": 2462,
      "恨": 2463,
      "恩": 2464,
      "恪": 2465,
      "恬": 2466,
      "恭": 2467,
      "息": 2468,
      "恰": 2469,
      "恳": 2470,
      "恶": 2471,
      "恺": 2472,
      "恻": 2473,
      "恼": 2474,
      "恿": 2475,
      "悄": 2476,
      "悉": 2477,
      "悍": 2478,
      "悔": 2479,
      "悖": 2480,
      "悚": 2481,
      "悟": 2482,
      "悠": 2483,
      "患": 2484,
      "悦": 2485,
      "您": 2486,
      "悪": 2487,
      "悬": 2488,
      "悯": 2489,
      "悱": 2490,
      "悲": 2491,
      "悴": 2492,
      "悸": 2493,
      "悻": 2494,
      "情": 2495,
      "惆": 2496,
      "惇": 2497,
      "惊": 2498,
      "惋": 2499,
      "惑": 2500,
      "惕": 2501,
      "惘": 2502,
      "惚": 2503,
      "惜": 2504,
      "惟": 2505,
      "惠": 2506,
      "惦": 2507,
      "惧": 2508,
      "惨": 2509,
      "惩": 2510,
      "惫": 2511,
      "惬": 2512,
      "惭": 2513,
      "惮": 2514,
      "惯": 2515,
      "惰": 2516,
      "想": 2517,
      "惴": 2518,
      "惶": 2519,
      "惹": 2520,
      "惺": 2521,
      "愁": 2522,
      "愆": 2523,
      "愈": 2524,
      "愉": 2525,
      "意": 2526,
      "愔": 2527,
      "愕": 2528,
      "愚": 2529,
      "感": 2530,
      "愠": 2531,
      "愣": 2532,
      "愤": 2533,
      "愧": 2534,
      "愫": 2535,
      "愿": 2536,
      "慈": 2537,
      "慌": 2538,
      "慎": 2539,
      "慑": 2540,
      "慕": 2541,
      "慢": 2542,
      "慧": 2543,
      "慨": 2544,
      "慰": 2545,
      "慵": 2546,
      "慷": 2547,
      "憋": 2548,
      "憎": 2549,
      "憔": 2550,
      "憧": 2551,
      "憨": 2552,
      "憩": 2553,
      "憬": 2554,
      "憾": 2555,
      "懂": 2556,
      "懈": 2557,
      "懊": 2558,
      "懑": 2559,
      "懒": 2560,
      "懔": 2561,
      "懦": 2562,
      "懵": 2563,
      "懿": 2564,
      "戆": 2565,
      "戈": 2566,
      "戎": 2567,
      "戏": 2568,
      "成": 2569,
      "我": 2570,
      "戒": 2571,
      "或": 2572,
      "战": 2573,
      "戚": 2574,
      "戛": 2575,
      "戟": 2576,
      "戦": 2577,
      "截": 2578,
      "戬": 2579,
      "戮": 2580,
      "戳": 2581,
      "戴": 2582,
      "户": 2583,
      "戻": 2584,
      "戾": 2585,
      "房": 2586,
      "所": 2587,
      "扁": 2588,
      "扇": 2589,
      "扈": 2590,
      "扉": 2591,
      "手": 2592,
      "才": 2593,
      "扎": 2594,
      "扑": 2595,
      "扒": 2596,
      "打": 2597,
      "扔": 2598,
      "托": 2599,
      "扛": 2600,
      "扣": 2601,
      "执": 2602,
      "扩": 2603,
      "扪": 2604,
      "扫": 2605,
      "扬": 2606,
      "扭": 2607,
      "扮": 2608,
      "扯": 2609,
      "扰": 2610,
      "扱": 2611,
      "扳": 2612,
      "扶": 2613,
      "批": 2614,
      "扼": 2615,
      "找": 2616,
      "承": 2617,
      "技": 2618,
      "抄": 2619,
      "抉": 2620,
      "把": 2621,
      "抑": 2622,
      "抒": 2623,
      "抓": 2624,
      "投": 2625,
      "抖": 2626,
      "抗": 2627,
      "折": 2628,
      "抚": 2629,
      "抛": 2630,
      "抜": 2631,
      "抠": 2632,
      "抡": 2633,
      "抢": 2634,
      "护": 2635,
      "报": 2636,
      "披": 2637,
      "抬": 2638,
      "抱": 2639,
      "抵": 2640,
      "抹": 2641,
      "抻": 2642,
      "押": 2643,
      "抽": 2644,
      "抿": 2645,
      "拂": 2646,
      "拄": 2647,
      "担": 2648,
      "拆": 2649,
      "拇": 2650,
      "拈": 2651,
      "拉": 2652,
      "拌": 2653,
      "拍": 2654,
      "拎": 2655,
      "拐": 2656,
      "拒": 2657,
      "拓": 2658,
      "拔": 2659,
      "拖": 2660,
      "拗": 2661,
      "拘": 2662,
      "拙": 2663,
      "拚": 2664,
      "招": 2665,
      "拜": 2666,
      "拟": 2667,
      "拢": 2668,
      "拣": 2669,
      "拥": 2670,
      "拦": 2671,
      "拧": 2672,
      "拨": 2673,
      "择": 2674,
      "括": 2675,
      "拭": 2676,
      "拯": 2677,
      "拱": 2678,
      "拳": 2679,
      "拴": 2680,
      "拶": 2681,
      "拷": 2682,
      "拼": 2683,
      "拽": 2684,
      "拾": 2685,
      "拿": 2686,
      "持": 2687,
      "挂": 2688,
      "指": 2689,
      "按": 2690,
      "挎": 2691,
      "挑": 2692,
      "挖": 2693,
      "挚": 2694,
      "挛": 2695,
      "挞": 2696,
      "挟": 2697,
      "挠": 2698,
      "挡": 2699,
      "挣": 2700,
      "挤": 2701,
      "挥": 2702,
      "挨": 2703,
      "挪": 2704,
      "挫": 2705,
      "振": 2706,
      "挲": 2707,
      "挺": 2708,
      "挻": 2709,
      "挽": 2710,
      "挿": 2711,
      "捂": 2712,
      "捅": 2713,
      "捆": 2714,
      "捉": 2715,
      "捋": 2716,
      "捌": 2717,
      "捍": 2718,
      "捎": 2719,
      "捏": 2720,
      "捐": 2721,
      "捕": 2722,
      "捞": 2723,
      "损": 2724,
      "捡": 2725,
      "换": 2726,
      "捣": 2727,
      "捧": 2728,
      "据": 2729,
      "捶": 2730,
      "捷": 2731,
      "捺": 2732,
      "捻": 2733,
      "掀": 2734,
      "掂": 2735,
      "掇": 2736,
      "授": 2737,
      "掉": 2738,
      "掌": 2739,
      "掏": 2740,
      "掐": 2741,
      "排": 2742,
      "掖": 2743,
      "掘": 2744,
      "掠": 2745,
      "探": 2746,
      "掣": 2747,
      "接": 2748,
      "控": 2749,
      "推": 2750,
      "掩": 2751,
      "措": 2752,
      "掬": 2753,
      "掰": 2754,
      "掳": 2755,
      "掴": 2756,
      "掷": 2757,
      "掸": 2758,
      "掺": 2759,
      "掻": 2760,
      "掼": 2761,
      "揄": 2762,
      "揉": 2763,
      "揍": 2764,
      "描": 2765,
      "提": 2766,
      "插": 2767,
      "揖": 2768,
      "握": 2769,
      "揣": 2770,
      "揩": 2771,
      "揪": 2772,
      "揭": 2773,
      "援": 2774,
      "揶": 2775,
      "揺": 2776,
      "揽": 2777,
      "搀": 2778,
      "搁": 2779,
      "搂": 2780,
      "搅": 2781,
      "搏": 2782,
      "搐": 2783,
      "搓": 2784,
      "搔": 2785,
      "搜": 2786,
      "搞": 2787,
      "搠": 2788,
      "搡": 2789,
      "搥": 2790,
      "搧": 2791,
      "搪": 2792,
      "搬": 2793,
      "搭": 2794,
      "携": 2795,
      "搽": 2796,
      "搾": 2797,
      "摀": 2798,
      "摁": 2799,
      "摄": 2800,
      "摆": 2801,
      "摇": 2802,
      "摊": 2803,
      "摒": 2804,
      "摔": 2805,
      "摘": 2806,
      "摞": 2807,
      "摧": 2808,
      "摩": 2809,
      "摸": 2810,
      "摹": 2811,
      "撂": 2812,
      "撃": 2813,
      "撅": 2814,
      "撇": 2815,
      "撑": 2816,
      "撒": 2817,
      "撕": 2818,
      "撚": 2819,
      "撞": 2820,
      "撤": 2821,
      "撩": 2822,
      "撬": 2823,
      "播": 2824,
      "撮": 2825,
      "撰": 2826,
      "撵": 2827,
      "撷": 2828,
      "撸": 2829,
      "撺": 2830,
      "撼": 2831,
      "擂": 2832,
      "擅": 2833,
      "操": 2834,
      "擎": 2835,
      "擒": 2836,
      "擞": 2837,
      "擡": 2838,
      "擤": 2839,
      "擦": 2840,
      "攀": 2841,
      "攒": 2842,
      "攘": 2843,
      "攥": 2844,
      "攫": 2845,
      "支": 2846,
      "收": 2847,
      "攸": 2848,
      "改": 2849,
      "攻": 2850,
      "放": 2851,
      "政": 2852,
      "故": 2853,
      "效": 2854,
      "敌": 2855,
      "敏": 2856,
      "救": 2857,
      "敕": 2858,
      "敖": 2859,
      "教": 2860,
      "敛": 2861,
      "敝": 2862,
      "敞": 2863,
      "敢": 2864,
      "散": 2865,
      "敦": 2866,
      "敬": 2867,
      "数": 2868,
      "敲": 2869,
      "整": 2870,
      "敷": 2871,
      "文": 2872,
      "斋": 2873,
      "斌": 2874,
      "斐": 2875,
      "斑": 2876,
      "斓": 2877,
      "斗": 2878,
      "料": 2879,
      "斛": 2880,
      "斜": 2881,
      "斟": 2882,
      "斡": 2883,
      "斤": 2884,
      "斥": 2885,
      "斧": 2886,
      "斩": 2887,
      "斫": 2888,
      "断": 2889,
      "斯": 2890,
      "新": 2891,
      "方": 2892,
      "施": 2893,
      "旁": 2894,
      "旄": 2895,
      "旅": 2896,
      "旋": 2897,
      "旌": 2898,
      "旎": 2899,
      "族": 2900,
      "旖": 2901,
      "旗": 2902,
      "无": 2903,
      "既": 2904,
      "日": 2905,
      "旦": 2906,
      "旧": 2907,
      "旨": 2908,
      "早": 2909,
      "旬": 2910,
      "旭": 2911,
      "旱": 2912,
      "时": 2913,
      "旷": 2914,
      "旸": 2915,
      "旺": 2916,
      "昀": 2917,
      "昂": 2918,
      "昆": 2919,
      "昊": 2920,
      "昌": 2921,
      "明": 2922,
      "昏": 2923,
      "易": 2924,
      "昔": 2925,
      "昕": 2926,
      "昙": 2927,
      "星": 2928,
      "映": 2929,
      "春": 2930,
      "昧": 2931,
      "昨": 2932,
      "昭": 2933,
      "是": 2934,
      "昱": 2935,
      "昴": 2936,
      "昵": 2937,
      "昼": 2938,
      "显": 2939,
      "晁": 2940,
      "晃": 2941,
      "晄": 2942,
      "晋": 2943,
      "晌": 2944,
      "晏": 2945,
      "晒": 2946,
      "晓": 2947,
      "晔": 2948,
      "晕": 2949,
      "晖": 2950,
      "晗": 2951,
      "晚": 2952,
      "晞": 2953,
      "晟": 2954,
      "晢": 2955,
      "晤": 2956,
      "晦": 2957,
      "晨": 2958,
      "晩": 2959,
      "普": 2960,
      "景": 2961,
      "晰": 2962,
      "晴": 2963,
      "晶": 2964,
      "智": 2965,
      "晾": 2966,
      "暂": 2967,
      "暄": 2968,
      "暇": 2969,
      "暑": 2970,
      "暖": 2971,
      "暗": 2972,
      "暝": 2973,
      "暧": 2974,
      "暨": 2975,
      "暮": 2976,
      "暴": 2977,
      "曙": 2978,
      "曜": 2979,
      "曝": 2980,
      "曦": 2981,
      "曰": 2982,
      "曲": 2983,
      "曳": 2984,
      "更": 2985,
      "曹": 2986,
      "曼": 2987,
      "曾": 2988,
      "替": 2989,
      "最": 2990,
      "月": 2991,
      "有": 2992,
      "朋": 2993,
      "服": 2994,
      "朔": 2995,
      "朕": 2996,
      "朗": 2997,
      "望": 2998,
      "朝": 2999,
      "期": 3000,
      "朦": 3001,
      "木": 3002,
      "未": 3003,
      "末": 3004,
      "本": 3005,
      "札": 3006,
      "术": 3007,
      "朱": 3008,
      "朴": 3009,
      "朵": 3010,
      "朷": 3011,
      "机": 3012,
      "朽": 3013,
      "杀": 3014,
      "杂": 3015,
      "权": 3016,
      "杆": 3017,
      "杉": 3018,
      "李": 3019,
      "杏": 3020,
      "材": 3021,
      "村": 3022,
      "杓": 3023,
      "杖": 3024,
      "杜": 3025,
      "杞": 3026,
      "束": 3027,
      "杠": 3028,
      "条": 3029,
      "来": 3030,
      "杨": 3031,
      "杩": 3032,
      "杪": 3033,
      "杭": 3034,
      "杯": 3035,
      "杰": 3036,
      "杲": 3037,
      "杳": 3038,
      "杵": 3039,
      "松": 3040,
      "板": 3041,
      "极": 3042,
      "构": 3043,
      "枉": 3044,
      "析": 3045,
      "枕": 3046,
      "林": 3047,
      "枚": 3048,
      "果": 3049,
      "枝": 3050,
      "枢": 3051,
      "枣": 3052,
      "枪": 3053,
      "枫": 3054,
      "枬": 3055,
      "枭": 3056,
      "枯": 3057,
      "枰": 3058,
      "架": 3059,
      "枷": 3060,
      "柄": 3061,
      "柊": 3062,
      "柏": 3063,
      "某": 3064,
      "柑": 3065,
      "柒": 3066,
      "染": 3067,
      "柔": 3068,
      "柚": 3069,
      "柜": 3070,
      "柠": 3071,
      "查": 3072,
      "柬": 3073,
      "柯": 3074,
      "柰": 3075,
      "柱": 3076,
      "柳": 3077,
      "柴": 3078,
      "柿": 3079,
      "栀": 3080,
      "栅": 3081,
      "标": 3082,
      "栈": 3083,
      "栉": 3084,
      "栋": 3085,
      "栏": 3086,
      "树": 3087,
      "栓": 3088,
      "栖": 3089,
      "栗": 3090,
      "栞": 3091,
      "校": 3092,
      "栩": 3093,
      "株": 3094,
      "样": 3095,
      "核": 3096,
      "根": 3097,
      "格": 3098,
      "栽": 3099,
      "栾": 3100,
      "桀": 3101,
      "桂": 3102,
      "桃": 3103,
      "桅": 3104,
      "框": 3105,
      "案": 3106,
      "桉": 3107,
      "桌": 3108,
      "桎": 3109,
      "桐": 3110,
      "桑": 3111,
      "桓": 3112,
      "桔": 3113,
      "桜": 3114,
      "桢": 3115,
      "档": 3116,
      "桥": 3117,
      "桦": 3118,
      "桧": 3119,
      "桨": 3120,
      "桩": 3121,
      "桶": 3122,
      "梁": 3123,
      "梅": 3124,
      "梆": 3125,
      "梏": 3126,
      "梓": 3127,
      "梗": 3128,
      "梢": 3129,
      "梦": 3130,
      "梧": 3131,
      "梨": 3132,
      "梭": 3133,
      "梯": 3134,
      "械": 3135,
      "梳": 3136,
      "梵": 3137,
      "检": 3138,
      "棂": 3139,
      "棉": 3140,
      "棋": 3141,
      "棍": 3142,
      "棒": 3143,
      "棕": 3144,
      "棘": 3145,
      "棚": 3146,
      "棠": 3147,
      "棣": 3148,
      "森": 3149,
      "棱": 3150,
      "棵": 3151,
      "棺": 3152,
      "椅": 3153,
      "椋": 3154,
      "植": 3155,
      "椎": 3156,
      "椒": 3157,
      "椤": 3158,
      "椭": 3159,
      "椰": 3160,
      "椴": 3161,
      "椿": 3162,
      "楚": 3163,
      "楞": 3164,
      "楠": 3165,
      "楣": 3166,
      "楪": 3167,
      "楮": 3168,
      "楹": 3169,
      "楼": 3170,
      "楽": 3171,
      "概": 3172,
      "榆": 3173,
      "榇": 3174,
      "榔": 3175,
      "榕": 3176,
      "榛": 3177,
      "榜": 3178,
      "榨": 3179,
      "榫": 3180,
      "榭": 3181,
      "榱": 3182,
      "榴": 3183,
      "榻": 3184,
      "槃": 3185,
      "槊": 3186,
      "槌": 3187,
      "槎": 3188,
      "槐": 3189,
      "様": 3190,
      "槛": 3191,
      "槟": 3192,
      "槭": 3193,
      "槲": 3194,
      "槻": 3195,
      "槽": 3196,
      "槿": 3197,
      "樊": 3198,
      "樗": 3199,
      "樘": 3200,
      "樟": 3201,
      "模": 3202,
      "権": 3203,
      "横": 3204,
      "樱": 3205,
      "樵": 3206,
      "樽": 3207,
      "橐": 3208,
      "橘": 3209,
      "橙": 3210,
      "橛": 3211,
      "橡": 3212,
      "橱": 3213,
      "橹": 3214,
      "檀": 3215,
      "檎": 3216,
      "檐": 3217,
      "檫": 3218,
      "檬": 3219,
      "欠": 3220,
      "次": 3221,
      "欢": 3222,
      "欣": 3223,
      "欤": 3224,
      "欧": 3225,
      "欲": 3226,
      "欸": 3227,
      "欺": 3228,
      "款": 3229,
      "歆": 3230,
      "歇": 3231,
      "歉": 3232,
      "歌": 3233,
      "歓": 3234,
      "止": 3235,
      "正": 3236,
      "此": 3237,
      "步": 3238,
      "武": 3239,
      "歧": 3240,
      "歩": 3241,
      "歪": 3242,
      "歯": 3243,
      "歹": 3244,
      "死": 3245,
      "歼": 3246,
      "殁": 3247,
      "殃": 3248,
      "殄": 3249,
      "殆": 3250,
      "殇": 3251,
      "殊": 3252,
      "残": 3253,
      "殒": 3254,
      "殖": 3255,
      "殛": 3256,
      "殡": 3257,
      "殴": 3258,
      "段": 3259,
      "殷": 3260,
      "殿": 3261,
      "毁": 3262,
      "毅": 3263,
      "毋": 3264,
      "母": 3265,
      "毎": 3266,
      "每": 3267,
      "毒": 3268,
      "毓": 3269,
      "比": 3270,
      "毕": 3271,
      "毗": 3272,
      "毙": 3273,
      "毛": 3274,
      "毡": 3275,
      "毫": 3276,
      "毯": 3277,
      "氏": 3278,
      "氐": 3279,
      "民": 3280,
      "氓": 3281,
      "气": 3282,
      "氖": 3283,
      "気": 3284,
      "氛": 3285,
      "氤": 3286,
      "氧": 3287,
      "氪": 3288,
      "氯": 3289,
      "氲": 3290,
      "水": 3291,
      "氵": 3292,
      "永": 3293,
      "汀": 3294,
      "汁": 3295,
      "求": 3296,
      "汆": 3297,
      "汇": 3298,
      "汉": 3299,
      "汐": 3300,
      "汗": 3301,
      "汚": 3302,
      "汝": 3303,
      "江": 3304,
      "池": 3305,
      "污": 3306,
      "汤": 3307,
      "汨": 3308,
      "汩": 3309,
      "汪": 3310,
      "汰": 3311,
      "汲": 3312,
      "汶": 3313,
      "汹": 3314,
      "汽": 3315,
      "沁": 3316,
      "沂": 3317,
      "沃": 3318,
      "沅": 3319,
      "沈": 3320,
      "沉": 3321,
      "沌": 3322,
      "沏": 3323,
      "沐": 3324,
      "沓": 3325,
      "沙": 3326,
      "沛": 3327,
      "沟": 3328,
      "没": 3329,
      "沢": 3330,
      "沤": 3331,
      "沥": 3332,
      "沦": 3333,
      "沧": 3334,
      "沪": 3335,
      "沫": 3336,
      "沮": 3337,
      "河": 3338,
      "沸": 3339,
      "油": 3340,
      "治": 3341,
      "沼": 3342,
      "沽": 3343,
      "沾": 3344,
      "沿": 3345,
      "泄": 3346,
      "泉": 3347,
      "泊": 3348,
      "泌": 3349,
      "泓": 3350,
      "法": 3351,
      "泛": 3352,
      "泞": 3353,
      "泠": 3354,
      "泡": 3355,
      "波": 3356,
      "泣": 3357,
      "泥": 3358,
      "注": 3359,
      "泪": 3360,
      "泫": 3361,
      "泯": 3362,
      "泰": 3363,
      "泱": 3364,
      "泳": 3365,
      "泵": 3366,
      "泷": 3367,
      "泻": 3368,
      "泼": 3369,
      "泽": 3370,
      "泾": 3371,
      "洁": 3372,
      "洇": 3373,
      "洋": 3374,
      "洌": 3375,
      "洒": 3376,
      "洗": 3377,
      "洛": 3378,
      "洞": 3379,
      "津": 3380,
      "洪": 3381,
      "洲": 3382,
      "洵": 3383,
      "洸": 3384,
      "洺": 3385,
      "活": 3386,
      "洼": 3387,
      "洽": 3388,
      "派": 3389,
      "流": 3390,
      "浃": 3391,
      "浅": 3392,
      "浆": 3393,
      "浇": 3394,
      "浊": 3395,
      "测": 3396,
      "济": 3397,
      "浏": 3398,
      "浑": 3399,
      "浓": 3400,
      "浔": 3401,
      "浙": 3402,
      "浚": 3403,
      "浜": 3404,
      "浠": 3405,
      "浣": 3406,
      "浦": 3407,
      "浩": 3408,
      "浪": 3409,
      "浮": 3410,
      "浴": 3411,
      "海": 3412,
      "浸": 3413,
      "涂": 3414,
      "涅": 3415,
      "消": 3416,
      "涉": 3417,
      "涌": 3418,
      "涎": 3419,
      "涑": 3420,
      "涓": 3421,
      "涔": 3422,
      "涕": 3423,
      "涙": 3424,
      "涛": 3425,
      "涞": 3426,
      "涟": 3427,
      "涠": 3428,
      "涡": 3429,
      "涣": 3430,
      "涤": 3431,
      "润": 3432,
      "涧": 3433,
      "涨": 3434,
      "涩": 3435,
      "涮": 3436,
      "涯": 3437,
      "液": 3438,
      "涵": 3439,
      "涸": 3440,
      "淀": 3441,
      "淅": 3442,
      "淆": 3443,
      "淇": 3444,
      "淋": 3445,
      "淌": 3446,
      "淑": 3447,
      "淖": 3448,
      "淘": 3449,
      "淞": 3450,
      "淡": 3451,
      "淤": 3452,
      "淦": 3453,
      "淫": 3454,
      "淬": 3455,
      "淮": 3456,
      "深": 3457,
      "淳": 3458,
      "混": 3459,
      "淹": 3460,
      "添": 3461,
      "淼": 3462,
      "清": 3463,
      "渊": 3464,
      "渍": 3465,
      "渎": 3466,
      "渐": 3467,
      "渔": 3468,
      "渗": 3469,
      "渚": 3470,
      "渝": 3471,
      "渠": 3472,
      "渡": 3473,
      "渣": 3474,
      "渤": 3475,
      "渥": 3476,
      "温": 3477,
      "渭": 3478,
      "港": 3479,
      "渲": 3480,
      "渴": 3481,
      "游": 3482,
      "渺": 3483,
      "湃": 3484,
      "湄": 3485,
      "湉": 3486,
      "湍": 3487,
      "湖": 3488,
      "湘": 3489,
      "湛": 3490,
      "湫": 3491,
      "湮": 3492,
      "湳": 3493,
      "湾": 3494,
      "湿": 3495,
      "満": 3496,
      "溃": 3497,
      "溅": 3498,
      "溉": 3499,
      "源": 3500,
      "溜": 3501,
      "溟": 3502,
      "溢": 3503,
      "溪": 3504,
      "溯": 3505,
      "溶": 3506,
      "溷": 3507,
      "溺": 3508,
      "滋": 3509,
      "滑": 3510,
      "滓": 3511,
      "滔": 3512,
      "滕": 3513,
      "滚": 3514,
      "滞": 3515,
      "滟": 3516,
      "满": 3517,
      "滢": 3518,
      "滤": 3519,
      "滥": 3520,
      "滦": 3521,
      "滨": 3522,
      "滩": 3523,
      "滴": 3524,
      "漂": 3525,
      "漆": 3526,
      "漉": 3527,
      "漏": 3528,
      "漓": 3529,
      "演": 3530,
      "漠": 3531,
      "漩": 3532,
      "漪": 3533,
      "漫": 3534,
      "漱": 3535,
      "漾": 3536,
      "潆": 3537,
      "潇": 3538,
      "潋": 3539,
      "潘": 3540,
      "潜": 3541,
      "潞": 3542,
      "潢": 3543,
      "潦": 3544,
      "潭": 3545,
      "潮": 3546,
      "潺": 3547,
      "澄": 3548,
      "澈": 3549,
      "澎": 3550,
      "澜": 3551,
      "澡": 3552,
      "澪": 3553,
      "澳": 3554,
      "澶": 3555,
      "澹": 3556,
      "激": 3557,
      "濂": 3558,
      "濉": 3559,
      "濑": 3560,
      "濒": 3561,
      "濠": 3562,
      "濡": 3563,
      "濮": 3564,
      "濯": 3565,
      "瀑": 3566,
      "瀚": 3567,
      "瀛": 3568,
      "灌": 3569,
      "灏": 3570,
      "灐": 3571,
      "灞": 3572,
      "火": 3573,
      "灭": 3574,
      "灯": 3575,
      "灰": 3576,
      "灵": 3577,
      "灶": 3578,
      "灸": 3579,
      "灼": 3580,
      "灾": 3581,
      "灿": 3582,
      "炀": 3583,
      "炁": 3584,
      "炉": 3585,
      "炊": 3586,
      "炎": 3587,
      "炒": 3588,
      "炕": 3589,
      "炖": 3590,
      "炙": 3591,
      "炝": 3592,
      "炫": 3593,
      "炬": 3594,
      "炭": 3595,
      "炮": 3596,
      "炯": 3597,
      "炳": 3598,
      "炷": 3599,
      "炸": 3600,
      "点": 3601,
      "炼": 3602,
      "炽": 3603,
      "烁": 3604,
      "烂": 3605,
      "烈": 3606,
      "烊": 3607,
      "烘": 3608,
      "烙": 3609,
      "烛": 3610,
      "烟": 3611,
      "烤": 3612,
      "烦": 3613,
      "烧": 3614,
      "烨": 3615,
      "烫": 3616,
      "烬": 3617,
      "热": 3618,
      "烹": 3619,
      "烽": 3620,
      "焉": 3621,
      "焊": 3622,
      "焐": 3623,
      "焕": 3624,
      "焖": 3625,
      "焙": 3626,
      "焚": 3627,
      "焦": 3628,
      "焰": 3629,
      "焱": 3630,
      "然": 3631,
      "煊": 3632,
      "煌": 3633,
      "煎": 3634,
      "煜": 3635,
      "煞": 3636,
      "煤": 3637,
      "煦": 3638,
      "照": 3639,
      "煨": 3640,
      "煮": 3641,
      "煲": 3642,
      "煳": 3643,
      "煸": 3644,
      "煽": 3645,
      "熄": 3646,
      "熊": 3647,
      "熏": 3648,
      "熔": 3649,
      "熘": 3650,
      "熙": 3651,
      "熟": 3652,
      "熠": 3653,
      "熨": 3654,
      "熬": 3655,
      "熵": 3656,
      "燃": 3657,
      "燎": 3658,
      "燐": 3659,
      "燕": 3660,
      "燥": 3661,
      "燮": 3662,
      "爆": 3663,
      "爪": 3664,
      "爬": 3665,
      "爱": 3666,
      "爵": 3667,
      "父": 3668,
      "爷": 3669,
      "爸": 3670,
      "爹": 3671,
      "爻": 3672,
      "爽": 3673,
      "爿": 3674,
      "片": 3675,
      "版": 3676,
      "牌": 3677,
      "牙": 3678,
      "牛": 3679,
      "牝": 3680,
      "牟": 3681,
      "牠": 3682,
      "牡": 3683,
      "牢": 3684,
      "牤": 3685,
      "牧": 3686,
      "物": 3687,
      "牲": 3688,
      "牵": 3689,
      "特": 3690,
      "牺": 3691,
      "犀": 3692,
      "犁": 3693,
      "犄": 3694,
      "犊": 3695,
      "犒": 3696,
      "犟": 3697,
      "犬": 3698,
      "犯": 3699,
      "状": 3700,
      "犷": 3701,
      "犹": 3702,
      "犽": 3703,
      "狂": 3704,
      "狄": 3705,
      "狈": 3706,
      "狎": 3707,
      "狐": 3708,
      "狗": 3709,
      "狙": 3710,
      "狞": 3711,
      "狠": 3712,
      "狡": 3713,
      "狩": 3714,
      "独": 3715,
      "狭": 3716,
      "狮": 3717,
      "狰": 3718,
      "狱": 3719,
      "狲": 3720,
      "狸": 3721,
      "狻": 3722,
      "狼": 3723,
      "猁": 3724,
      "猎": 3725,
      "猓": 3726,
      "猖": 3727,
      "猛": 3728,
      "猜": 3729,
      "猝": 3730,
      "猞": 3731,
      "猡": 3732,
      "猢": 3733,
      "猥": 3734,
      "猩": 3735,
      "猪": 3736,
      "猫": 3737,
      "猬": 3738,
      "献": 3739,
      "猴": 3740,
      "猾": 3741,
      "猿": 3742,
      "獍": 3743,
      "獒": 3744,
      "獗": 3745,
      "獠": 3746,
      "獣": 3747,
      "獾": 3748,
      "玄": 3749,
      "率": 3750,
      "玉": 3751,
      "王": 3752,
      "玑": 3753,
      "玖": 3754,
      "玛": 3755,
      "玟": 3756,
      "玠": 3757,
      "玥": 3758,
      "玦": 3759,
      "玩": 3760,
      "玫": 3761,
      "玮": 3762,
      "环": 3763,
      "现": 3764,
      "玲": 3765,
      "玷": 3766,
      "玺": 3767,
      "玻": 3768,
      "珀": 3769,
      "珂": 3770,
      "珈": 3771,
      "珊": 3772,
      "珍": 3773,
      "珏": 3774,
      "珐": 3775,
      "珑": 3776,
      "珞": 3777,
      "珠": 3778,
      "珣": 3779,
      "珥": 3780,
      "珩": 3781,
      "班": 3782,
      "珮": 3783,
      "珲": 3784,
      "珵": 3785,
      "珺": 3786,
      "球": 3787,
      "琅": 3788,
      "理": 3789,
      "琇": 3790,
      "琉": 3791,
      "琊": 3792,
      "琏": 3793,
      "琐": 3794,
      "琛": 3795,
      "琢": 3796,
      "琥": 3797,
      "琦": 3798,
      "琪": 3799,
      "琬": 3800,
      "琰": 3801,
      "琳": 3802,
      "琴": 3803,
      "琵": 3804,
      "琶": 3805,
      "琼": 3806,
      "瑄": 3807,
      "瑕": 3808,
      "瑗": 3809,
      "瑙": 3810,
      "瑚": 3811,
      "瑛": 3812,
      "瑜": 3813,
      "瑞": 3814,
      "瑟": 3815,
      "瑠": 3816,
      "瑰": 3817,
      "瑶": 3818,
      "瑷": 3819,
      "瑾": 3820,
      "璀": 3821,
      "璃": 3822,
      "璇": 3823,
      "璋": 3824,
      "璎": 3825,
      "璐": 3826,
      "璘": 3827,
      "璜": 3828,
      "璟": 3829,
      "璧": 3830,
      "璨": 3831,
      "瓒": 3832,
      "瓜": 3833,
      "瓢": 3834,
      "瓣": 3835,
      "瓤": 3836,
      "瓦": 3837,
      "瓮": 3838,
      "瓶": 3839,
      "瓷": 3840,
      "甄": 3841,
      "甑": 3842,
      "甘": 3843,
      "甚": 3844,
      "甜": 3845,
      "生": 3846,
      "甥": 3847,
      "用": 3848,
      "甩": 3849,
      "甫": 3850,
      "甬": 3851,
      "甭": 3852,
      "田": 3853,
      "由": 3854,
      "甲": 3855,
      "申": 3856,
      "电": 3857,
      "男": 3858,
      "甸": 3859,
      "町": 3860,
      "画": 3861,
      "畅": 3862,
      "界": 3863,
      "畏": 3864,
      "畔": 3865,
      "留": 3866,
      "畜": 3867,
      "略": 3868,
      "番": 3869,
      "畲": 3870,
      "畴": 3871,
      "畸": 3872,
      "畹": 3873,
      "疆": 3874,
      "疏": 3875,
      "疑": 3876,
      "疗": 3877,
      "疙": 3878,
      "疚": 3879,
      "疤": 3880,
      "疫": 3881,
      "疮": 3882,
      "疯": 3883,
      "疲": 3884,
      "疴": 3885,
      "疵": 3886,
      "疼": 3887,
      "疾": 3888,
      "病": 3889,
      "症": 3890,
      "痉": 3891,
      "痊": 3892,
      "痒": 3893,
      "痕": 3894,
      "痛": 3895,
      "痞": 3896,
      "痣": 3897,
      "痪": 3898,
      "痰": 3899,
      "痴": 3900,
      "痹": 3901,
      "痺": 3902,
      "痿": 3903,
      "瘀": 3904,
      "瘁": 3905,
      "瘆": 3906,
      "瘙": 3907,
      "瘟": 3908,
      "瘠": 3909,
      "瘤": 3910,
      "瘦": 3911,
      "瘩": 3912,
      "瘪": 3913,
      "瘫": 3914,
      "瘴": 3915,
      "瘸": 3916,
      "瘾": 3917,
      "癌": 3918,
      "癖": 3919,
      "癞": 3920,
      "癫": 3921,
      "癸": 3922,
      "発": 3923,
      "登": 3924,
      "白": 3925,
      "百": 3926,
      "皂": 3927,
      "的": 3928,
      "皆": 3929,
      "皇": 3930,
      "皋": 3931,
      "皎": 3932,
      "皓": 3933,
      "皖": 3934,
      "皙": 3935,
      "皮": 3936,
      "皱": 3937,
      "皿": 3938,
      "盅": 3939,
      "盆": 3940,
      "盈": 3941,
      "益": 3942,
      "盎": 3943,
      "盏": 3944,
      "盐": 3945,
      "监": 3946,
      "盒": 3947,
      "盔": 3948,
      "盖": 3949,
      "盗": 3950,
      "盘": 3951,
      "盛": 3952,
      "盟": 3953,
      "盥": 3954,
      "目": 3955,
      "盯": 3956,
      "盲": 3957,
      "直": 3958,
      "相": 3959,
      "盹": 3960,
      "盼": 3961,
      "盾": 3962,
      "眀": 3963,
      "省": 3964,
      "眈": 3965,
      "眉": 3966,
      "看": 3967,
      "真": 3968,
      "眠": 3969,
      "眢": 3970,
      "眦": 3971,
      "眨": 3972,
      "眩": 3973,
      "眯": 3974,
      "眶": 3975,
      "眷": 3976,
      "眸": 3977,
      "眺": 3978,
      "眼": 3979,
      "着": 3980,
      "睁": 3981,
      "睇": 3982,
      "睐": 3983,
      "睑": 3984,
      "睛": 3985,
      "睡": 3986,
      "督": 3987,
      "睥": 3988,
      "睦": 3989,
      "睨": 3990,
      "睪": 3991,
      "睫": 3992,
      "睬": 3993,
      "睹": 3994,
      "睽": 3995,
      "睾": 3996,
      "睿": 3997,
      "瞄": 3998,
      "瞅": 3999,
      "瞇": 4000,
      "瞌": 4001,
      "瞎": 4002,
      "瞑": 4003,
      "瞒": 4004,
      "瞟": 4005,
      "瞠": 4006,
      "瞥": 4007,
      "瞧": 4008,
      "瞩": 4009,
      "瞪": 4010,
      "瞬": 4011,
      "瞰": 4012,
      "瞳": 4013,
      "瞻": 4014,
      "瞿": 4015,
      "矗": 4016,
      "矛": 4017,
      "矜": 4018,
      "矢": 4019,
      "矣": 4020,
      "知": 4021,
      "矩": 4022,
      "矫": 4023,
      "短": 4024,
      "矮": 4025,
      "石": 4026,
      "矶": 4027,
      "矿": 4028,
      "码": 4029,
      "砂": 4030,
      "砌": 4031,
      "砍": 4032,
      "研": 4033,
      "砖": 4034,
      "砘": 4035,
      "砚": 4036,
      "砝": 4037,
      "砣": 4038,
      "砥": 4039,
      "砦": 4040,
      "砧": 4041,
      "砩": 4042,
      "砰": 4043,
      "砲": 4044,
      "破": 4045,
      "砸": 4046,
      "砹": 4047,
      "砺": 4048,
      "砾": 4049,
      "础": 4050,
      "硅": 4051,
      "硌": 4052,
      "硎": 4053,
      "硐": 4054,
      "硕": 4055,
      "硖": 4056,
      "硝": 4057,
      "硪": 4058,
      "硬": 4059,
      "确": 4060,
      "碇": 4061,
      "碌": 4062,
      "碍": 4063,
      "碎": 4064,
      "碑": 4065,
      "碓": 4066,
      "碗": 4067,
      "碚": 4068,
      "碛": 4069,
      "碜": 4070,
      "碟": 4071,
      "碧": 4072,
      "碰": 4073,
      "碳": 4074,
      "碾": 4075,
      "磁": 4076,
      "磅": 4077,
      "磉": 4078,
      "磊": 4079,
      "磋": 4080,
      "磐": 4081,
      "磕": 4082,
      "磨": 4083,
      "磷": 4084,
      "礁": 4085,
      "礴": 4086,
      "示": 4087,
      "礼": 4088,
      "社": 4089,
      "礿": 4090,
      "祀": 4091,
      "祁": 4092,
      "祂": 4093,
      "祇": 4094,
      "祈": 4095,
      "祎": 4096,
      "祐": 4097,
      "祖": 4098,
      "祗": 4099,
      "祛": 4100,
      "祝": 4101,
      "神": 4102,
      "祟": 4103,
      "祠": 4104,
      "祢": 4105,
      "祥": 4106,
      "票": 4107,
      "祭": 4108,
      "祯": 4109,
      "祷": 4110,
      "祸": 4111,
      "祺": 4112,
      "祼": 4113,
      "禀": 4114,
      "禁": 4115,
      "禄": 4116,
      "禅": 4117,
      "福": 4118,
      "禛": 4119,
      "禧": 4120,
      "禹": 4121,
      "离": 4122,
      "禽": 4123,
      "禾": 4124,
      "秀": 4125,
      "私": 4126,
      "秃": 4127,
      "秉": 4128,
      "秋": 4129,
      "种": 4130,
      "科": 4131,
      "秒": 4132,
      "秘": 4133,
      "租": 4134,
      "秤": 4135,
      "秦": 4136,
      "秩": 4137,
      "积": 4138,
      "称": 4139,
      "移": 4140,
      "秽": 4141,
      "稀": 4142,
      "程": 4143,
      "稍": 4144,
      "税": 4145,
      "稔": 4146,
      "稚": 4147,
      "稠": 4148,
      "稣": 4149,
      "稳": 4150,
      "稷": 4151,
      "稻": 4152,
      "稼": 4153,
      "稽": 4154,
      "稿": 4155,
      "穆": 4156,
      "穑": 4157,
      "穗": 4158,
      "穴": 4159,
      "究": 4160,
      "穷": 4161,
      "穹": 4162,
      "空": 4163,
      "穿": 4164,
      "突": 4165,
      "窃": 4166,
      "窄": 4167,
      "窈": 4168,
      "窍": 4169,
      "窑": 4170,
      "窒": 4171,
      "窕": 4172,
      "窖": 4173,
      "窗": 4174,
      "窘": 4175,
      "窜": 4176,
      "窝": 4177,
      "窟": 4178,
      "窣": 4179,
      "窥": 4180,
      "窦": 4181,
      "窳": 4182,
      "窸": 4183,
      "窿": 4184,
      "立": 4185,
      "竖": 4186,
      "站": 4187,
      "竞": 4188,
      "竟": 4189,
      "童": 4190,
      "竦": 4191,
      "竭": 4192,
      "端": 4193,
      "竹": 4194,
      "竺": 4195,
      "竿": 4196,
      "笃": 4197,
      "笆": 4198,
      "笈": 4199,
      "笉": 4200,
      "笋": 4201,
      "笏": 4202,
      "笑": 4203,
      "笔": 4204,
      "笕": 4205,
      "笙": 4206,
      "笛": 4207,
      "笞": 4208,
      "笠": 4209,
      "笥": 4210,
      "符": 4211,
      "笨": 4212,
      "笫": 4213,
      "第": 4214,
      "笳": 4215,
      "笺": 4216,
      "笼": 4217,
      "等": 4218,
      "筋": 4219,
      "筐": 4220,
      "筑": 4221,
      "筒": 4222,
      "答": 4223,
      "策": 4224,
      "筛": 4225,
      "筝": 4226,
      "筠": 4227,
      "筣": 4228,
      "筱": 4229,
      "筷": 4230,
      "筹": 4231,
      "签": 4232,
      "筿": 4233,
      "简": 4234,
      "箍": 4235,
      "箐": 4236,
      "箒": 4237,
      "箓": 4238,
      "箕": 4239,
      "算": 4240,
      "管": 4241,
      "箫": 4242,
      "箬": 4243,
      "箭": 4244,
      "箱": 4245,
      "箸": 4246,
      "篇": 4247,
      "篑": 4248,
      "篝": 4249,
      "篡": 4250,
      "篮": 4251,
      "篱": 4252,
      "篷": 4253,
      "簇": 4254,
      "簌": 4255,
      "簟": 4256,
      "簦": 4257,
      "簧": 4258,
      "簪": 4259,
      "簸": 4260,
      "簿": 4261,
      "籁": 4262,
      "籍": 4263,
      "籐": 4264,
      "米": 4265,
      "类": 4266,
      "粉": 4267,
      "粑": 4268,
      "粒": 4269,
      "粗": 4270,
      "粘": 4271,
      "粝": 4272,
      "粟": 4273,
      "粥": 4274,
      "粪": 4275,
      "粮": 4276,
      "粱": 4277,
      "粲": 4278,
      "粹": 4279,
      "粼": 4280,
      "粽": 4281,
      "精": 4282,
      "糁": 4283,
      "糅": 4284,
      "糊": 4285,
      "糕": 4286,
      "糖": 4287,
      "糗": 4288,
      "糙": 4289,
      "糜": 4290,
      "糟": 4291,
      "糠": 4292,
      "糯": 4293,
      "糸": 4294,
      "系": 4295,
      "紊": 4296,
      "素": 4297,
      "索": 4298,
      "紧": 4299,
      "紫": 4300,
      "累": 4301,
      "経": 4302,
      "絮": 4303,
      "続": 4304,
      "繁": 4305,
      "繋": 4306,
      "纠": 4307,
      "纡": 4308,
      "红": 4309,
      "纣": 4310,
      "纤": 4311,
      "约": 4312,
      "级": 4313,
      "纨": 4314,
      "纪": 4315,
      "纬": 4316,
      "纭": 4317,
      "纯": 4318,
      "纰": 4319,
      "纱": 4320,
      "纲": 4321,
      "纳": 4322,
      "纵": 4323,
      "纶": 4324,
      "纷": 4325,
      "纸": 4326,
      "纹": 4327,
      "纺": 4328,
      "纽": 4329,
      "纾": 4330,
      "线": 4331,
      "绀": 4332,
      "练": 4333,
      "组": 4334,
      "绅": 4335,
      "细": 4336,
      "织": 4337,
      "终": 4338,
      "绉": 4339,
      "绊": 4340,
      "绍": 4341,
      "绎": 4342,
      "经": 4343,
      "绑": 4344,
      "绒": 4345,
      "结": 4346,
      "绔": 4347,
      "绕": 4348,
      "绘": 4349,
      "给": 4350,
      "绚": 4351,
      "绛": 4352,
      "络": 4353,
      "绝": 4354,
      "绞": 4355,
      "统": 4356,
      "绡": 4357,
      "绢": 4358,
      "绣": 4359,
      "绦": 4360,
      "继": 4361,
      "绩": 4362,
      "绪": 4363,
      "绫": 4364,
      "续": 4365,
      "绮": 4366,
      "绯": 4367,
      "绰": 4368,
      "绱": 4369,
      "绲": 4370,
      "绳": 4371,
      "维": 4372,
      "绵": 4373,
      "绷": 4374,
      "绸": 4375,
      "绺": 4376,
      "绻": 4377,
      "综": 4378,
      "绽": 4379,
      "绾": 4380,
      "绿": 4381,
      "缀": 4382,
      "缁": 4383,
      "缃": 4384,
      "缅": 4385,
      "缇": 4386,
      "缈": 4387,
      "缉": 4388,
      "缌": 4389,
      "缎": 4390,
      "缓": 4391,
      "缔": 4392,
      "缕": 4393,
      "编": 4394,
      "缘": 4395,
      "缚": 4396,
      "缜": 4397,
      "缝": 4398,
      "缠": 4399,
      "缤": 4400,
      "缥": 4401,
      "缦": 4402,
      "缨": 4403,
      "缩": 4404,
      "缪": 4405,
      "缭": 4406,
      "缮": 4407,
      "缰": 4408,
      "缱": 4409,
      "缲": 4410,
      "缴": 4411,
      "缸": 4412,
      "缺": 4413,
      "罂": 4414,
      "罄": 4415,
      "罅": 4416,
      "罐": 4417,
      "网": 4418,
      "罔": 4419,
      "罕": 4420,
      "罗": 4421,
      "罚": 4422,
      "罡": 4423,
      "罢": 4424,
      "罩": 4425,
      "罪": 4426,
      "置": 4427,
      "署": 4428,
      "罴": 4429,
      "罹": 4430,
      "羁": 4431,
      "羊": 4432,
      "美": 4433,
      "羑": 4434,
      "羔": 4435,
      "羚": 4436,
      "羞": 4437,
      "羡": 4438,
      "群": 4439,
      "羯": 4440,
      "羲": 4441,
      "羸": 4442,
      "羹": 4443,
      "羽": 4444,
      "羿": 4445,
      "翀": 4446,
      "翁": 4447,
      "翅": 4448,
      "翊": 4449,
      "翌": 4450,
      "翎": 4451,
      "翔": 4452,
      "翕": 4453,
      "翘": 4454,
      "翟": 4455,
      "翠": 4456,
      "翡": 4457,
      "翩": 4458,
      "翰": 4459,
      "翱": 4460,
      "翳": 4461,
      "翻": 4462,
      "翼": 4463,
      "耀": 4464,
      "老": 4465,
      "考": 4466,
      "耄": 4467,
      "者": 4468,
      "耆": 4469,
      "而": 4470,
      "耍": 4471,
      "耐": 4472,
      "耕": 4473,
      "耗": 4474,
      "耘": 4475,
      "耙": 4476,
      "耪": 4477,
      "耳": 4478,
      "耶": 4479,
      "耷": 4480,
      "耸": 4481,
      "耻": 4482,
      "耽": 4483,
      "耿": 4484,
      "聂": 4485,
      "聆": 4486,
      "聊": 4487,
      "聋": 4488,
      "职": 4489,
      "聒": 4490,
      "联": 4491,
      "聘": 4492,
      "聚": 4493,
      "聪": 4494,
      "聿": 4495,
      "肃": 4496,
      "肆": 4497,
      "肇": 4498,
      "肉": 4499,
      "肋": 4500,
      "肌": 4501,
      "肏": 4502,
      "肖": 4503,
      "肘": 4504,
      "肚": 4505,
      "肛": 4506,
      "肝": 4507,
      "肟": 4508,
      "肠": 4509,
      "股": 4510,
      "肢": 4511,
      "肤": 4512,
      "肥": 4513,
      "肩": 4514,
      "肪": 4515,
      "肮": 4516,
      "肯": 4517,
      "肱": 4518,
      "育": 4519,
      "肴": 4520,
      "肺": 4521,
      "肾": 4522,
      "肿": 4523,
      "胀": 4524,
      "胁": 4525,
      "胃": 4526,
      "胄": 4527,
      "胆": 4528,
      "背": 4529,
      "胍": 4530,
      "胎": 4531,
      "胖": 4532,
      "胚": 4533,
      "胛": 4534,
      "胜": 4535,
      "胞": 4536,
      "胡": 4537,
      "胤": 4538,
      "胥": 4539,
      "胧": 4540,
      "胫": 4541,
      "胭": 4542,
      "胯": 4543,
      "胰": 4544,
      "胱": 4545,
      "胳": 4546,
      "胴": 4547,
      "胶": 4548,
      "胸": 4549,
      "能": 4550,
      "脂": 4551,
      "脆": 4552,
      "脉": 4553,
      "脊": 4554,
      "脏": 4555,
      "脐": 4556,
      "脑": 4557,
      "脔": 4558,
      "脖": 4559,
      "脚": 4560,
      "脯": 4561,
      "脱": 4562,
      "脳": 4563,
      "脸": 4564,
      "脾": 4565,
      "腆": 4566,
      "腊": 4567,
      "腋": 4568,
      "腌": 4569,
      "腐": 4570,
      "腑": 4571,
      "腓": 4572,
      "腔": 4573,
      "腕": 4574,
      "腚": 4575,
      "腟": 4576,
      "腥": 4577,
      "腩": 4578,
      "腮": 4579,
      "腰": 4580,
      "腴": 4581,
      "腹": 4582,
      "腺": 4583,
      "腻": 4584,
      "腼": 4585,
      "腾": 4586,
      "腿": 4587,
      "膀": 4588,
      "膈": 4589,
      "膊": 4590,
      "膏": 4591,
      "膑": 4592,
      "膘": 4593,
      "膛": 4594,
      "膜": 4595,
      "膝": 4596,
      "膣": 4597,
      "膨": 4598,
      "膳": 4599,
      "膺": 4600,
      "膻": 4601,
      "臀": 4602,
      "臁": 4603,
      "臂": 4604,
      "臃": 4605,
      "臆": 4606,
      "臊": 4607,
      "臣": 4608,
      "臧": 4609,
      "自": 4610,
      "臭": 4611,
      "至": 4612,
      "致": 4613,
      "臻": 4614,
      "臼": 4615,
      "臾": 4616,
      "舀": 4617,
      "舂": 4618,
      "舅": 4619,
      "舆": 4620,
      "舌": 4621,
      "舍": 4622,
      "舐": 4623,
      "舒": 4624,
      "舔": 4625,
      "舖": 4626,
      "舛": 4627,
      "舜": 4628,
      "舞": 4629,
      "舟": 4630,
      "航": 4631,
      "舫": 4632,
      "般": 4633,
      "舭": 4634,
      "舰": 4635,
      "舱": 4636,
      "舵": 4637,
      "舷": 4638,
      "船": 4639,
      "舻": 4640,
      "艇": 4641,
      "艏": 4642,
      "艘": 4643,
      "艚": 4644,
      "良": 4645,
      "艰": 4646,
      "色": 4647,
      "艳": 4648,
      "艶": 4649,
      "艹": 4650,
      "艺": 4651,
      "艾": 4652,
      "艿": 4653,
      "节": 4654,
      "芃": 4655,
      "芈": 4656,
      "芊": 4657,
      "芋": 4658,
      "芍": 4659,
      "芒": 4660,
      "芘": 4661,
      "芙": 4662,
      "芜": 4663,
      "芝": 4664,
      "芥": 4665,
      "芦": 4666,
      "芩": 4667,
      "芫": 4668,
      "芬": 4669,
      "芭": 4670,
      "芮": 4671,
      "芯": 4672,
      "芰": 4673,
      "花": 4674,
      "芳": 4675,
      "芷": 4676,
      "芸": 4677,
      "芹": 4678,
      "芽": 4679,
      "苁": 4680,
      "苇": 4681,
      "苍": 4682,
      "苏": 4683,
      "苑": 4684,
      "苒": 4685,
      "苓": 4686,
      "苔": 4687,
      "苗": 4688,
      "苛": 4689,
      "苞": 4690,
      "苟": 4691,
      "苡": 4692,
      "若": 4693,
      "苦": 4694,
      "苯": 4695,
      "英": 4696,
      "苹": 4697,
      "苻": 4698,
      "茁": 4699,
      "茂": 4700,
      "范": 4701,
      "茄": 4702,
      "茅": 4703,
      "茉": 4704,
      "茎": 4705,
      "茏": 4706,
      "茗": 4707,
      "茜": 4708,
      "茝": 4709,
      "茧": 4710,
      "茨": 4711,
      "茫": 4712,
      "茬": 4713,
      "茱": 4714,
      "茵": 4715,
      "茶": 4716,
      "茸": 4717,
      "茹": 4718,
      "荀": 4719,
      "荃": 4720,
      "荆": 4721,
      "荇": 4722,
      "草": 4723,
      "荏": 4724,
      "荐": 4725,
      "荑": 4726,
      "荒": 4727,
      "荔": 4728,
      "荚": 4729,
      "荞": 4730,
      "荡": 4731,
      "荣": 4732,
      "荤": 4733,
      "荧": 4734,
      "荨": 4735,
      "荩": 4736,
      "荫": 4737,
      "药": 4738,
      "荳": 4739,
      "荷": 4740,
      "荻": 4741,
      "荼": 4742,
      "莆": 4743,
      "莉": 4744,
      "莎": 4745,
      "莓": 4746,
      "莘": 4747,
      "莛": 4748,
      "莜": 4749,
      "莞": 4750,
      "莤": 4751,
      "莪": 4752,
      "莫": 4753,
      "莱": 4754,
      "莲": 4755,
      "莳": 4756,
      "获": 4757,
      "莸": 4758,
      "莹": 4759,
      "莺": 4760,
      "莽": 4761,
      "菀": 4762,
      "菁": 4763,
      "菅": 4764,
      "菇": 4765,
      "菈": 4766,
      "菊": 4767,
      "菌": 4768,
      "菖": 4769,
      "菜": 4770,
      "菠": 4771,
      "菡": 4772,
      "菩": 4773,
      "菰": 4774,
      "菱": 4775,
      "菲": 4776,
      "萃": 4777,
      "萄": 4778,
      "萋": 4779,
      "萌": 4780,
      "萍": 4781,
      "萎": 4782,
      "萝": 4783,
      "萤": 4784,
      "营": 4785,
      "萦": 4786,
      "萧": 4787,
      "萨": 4788,
      "萱": 4789,
      "萼": 4790,
      "落": 4791,
      "葆": 4792,
      "葇": 4793,
      "葎": 4794,
      "葑": 4795,
      "著": 4796,
      "葚": 4797,
      "葛": 4798,
      "葡": 4799,
      "董": 4800,
      "葩": 4801,
      "葫": 4802,
      "葬": 4803,
      "葭": 4804,
      "葱": 4805,
      "葳": 4806,
      "葵": 4807,
      "葶": 4808,
      "蒂": 4809,
      "蒋": 4810,
      "蒙": 4811,
      "蒜": 4812,
      "蒨": 4813,
      "蒲": 4814,
      "蒸": 4815,
      "蒹": 4816,
      "蓁": 4817,
      "蓂": 4818,
      "蓄": 4819,
      "蓉": 4820,
      "蓓": 4821,
      "蓝": 4822,
      "蓟": 4823,
      "蓦": 4824,
      "蓬": 4825,
      "蔑": 4826,
      "蔓": 4827,
      "蔚": 4828,
      "蔡": 4829,
      "蔫": 4830,
      "蔬": 4831,
      "蔷": 4832,
      "蔺": 4833,
      "蔻": 4834,
      "蔼": 4835,
      "蔽": 4836,
      "蕃": 4837,
      "蕉": 4838,
      "蕊": 4839,
      "蕖": 4840,
      "蕙": 4841,
      "蕤": 4842,
      "蕴": 4843,
      "蕾": 4844,
      "薄": 4845,
      "薅": 4846,
      "薇": 4847,
      "薙": 4848,
      "薛": 4849,
      "薜": 4850,
      "薪": 4851,
      "薬": 4852,
      "薮": 4853,
      "薯": 4854,
      "薰": 4855,
      "藉": 4856,
      "藏": 4857,
      "藐": 4858,
      "藕": 4859,
      "藤": 4860,
      "藻": 4861,
      "蘅": 4862,
      "蘑": 4863,
      "蘸": 4864,
      "蘼": 4865,
      "虎": 4866,
      "虏": 4867,
      "虐": 4868,
      "虑": 4869,
      "虔": 4870,
      "虚": 4871,
      "虞": 4872,
      "虫": 4873,
      "虬": 4874,
      "虹": 4875,
      "虺": 4876,
      "虻": 4877,
      "虽": 4878,
      "虾": 4879,
      "蚀": 4880,
      "蚁": 4881,
      "蚂": 4882,
      "蚊": 4883,
      "蚋": 4884,
      "蚌": 4885,
      "蚍": 4886,
      "蚓": 4887,
      "蚕": 4888,
      "蚝": 4889,
      "蚣": 4890,
      "蚩": 4891,
      "蚯": 4892,
      "蚺": 4893,
      "蛆": 4894,
      "蛇": 4895,
      "蛊": 4896,
      "蛋": 4897,
      "蛔": 4898,
      "蛙": 4899,
      "蛛": 4900,
      "蛞": 4901,
      "蛟": 4902,
      "蛤": 4903,
      "蛭": 4904,
      "蛮": 4905,
      "蛰": 4906,
      "蛸": 4907,
      "蛹": 4908,
      "蛾": 4909,
      "蜀": 4910,
      "蜂": 4911,
      "蜃": 4912,
      "蜈": 4913,
      "蜉": 4914,
      "蜒": 4915,
      "蜓": 4916,
      "蜕": 4917,
      "蜗": 4918,
      "蜘": 4919,
      "蜚": 4920,
      "蜜": 4921,
      "蜡": 4922,
      "蜥": 4923,
      "蜴": 4924,
      "蜷": 4925,
      "蜻": 4926,
      "蜿": 4927,
      "蝇": 4928,
      "蝉": 4929,
      "蝎": 4930,
      "蝓": 4931,
      "蝗": 4932,
      "蝙": 4933,
      "蝠": 4934,
      "蝰": 4935,
      "蝴": 4936,
      "蝶": 4937,
      "蝼": 4938,
      "螂": 4939,
      "螃": 4940,
      "螅": 4941,
      "融": 4942,
      "螓": 4943,
      "螣": 4944,
      "螭": 4945,
      "螯": 4946,
      "螳": 4947,
      "螺": 4948,
      "蟆": 4949,
      "蟑": 4950,
      "蟒": 4951,
      "蟠": 4952,
      "蟮": 4953,
      "蟹": 4954,
      "蟾": 4955,
      "蠕": 4956,
      "蠛": 4957,
      "蠢": 4958,
      "蠹": 4959,
      "血": 4960,
      "衅": 4961,
      "行": 4962,
      "衍": 4963,
      "衔": 4964,
      "街": 4965,
      "衙": 4966,
      "衡": 4967,
      "衣": 4968,
      "补": 4969,
      "表": 4970,
      "衩": 4971,
      "衫": 4972,
      "衬": 4973,
      "衰": 4974,
      "衲": 4975,
      "衷": 4976,
      "衹": 4977,
      "衾": 4978,
      "衿": 4979,
      "袁": 4980,
      "袂": 4981,
      "袄": 4982,
      "袅": 4983,
      "袈": 4984,
      "袋": 4985,
      "袍": 4986,
      "袒": 4987,
      "袖": 4988,
      "袜": 4989,
      "袢": 4990,
      "袤": 4991,
      "被": 4992,
      "袭": 4993,
      "袱": 4994,
      "袷": 4995,
      "裁": 4996,
      "裂": 4997,
      "装": 4998,
      "裆": 4999,
      "裎": 5000,
      "裔": 5001,
      "裕": 5002,
      "裘": 5003,
      "裙": 5004,
      "裟": 5005,
      "裤": 5006,
      "裳": 5007,
      "裴": 5008,
      "裸": 5009,
      "裹": 5010,
      "裾": 5011,
      "褂": 5012,
      "褐": 5013,
      "褒": 5014,
      "褓": 5015,
      "褚": 5016,
      "褛": 5017,
      "褥": 5018,
      "褪": 5019,
      "褰": 5020,
      "褴": 5021,
      "褶": 5022,
      "襁": 5023,
      "襄": 5024,
      "襞": 5025,
      "襟": 5026,
      "襦": 5027,
      "西": 5028,
      "要": 5029,
      "覃": 5030,
      "覆": 5031,
      "覗": 5032,
      "覚": 5033,
      "観": 5034,
      "见": 5035,
      "观": 5036,
      "规": 5037,
      "觅": 5038,
      "视": 5039,
      "览": 5040,
      "觉": 5041,
      "觊": 5042,
      "觎": 5043,
      "觐": 5044,
      "觑": 5045,
      "角": 5046,
      "觜": 5047,
      "解": 5048,
      "觥": 5049,
      "触": 5050,
      "觯": 5051,
      "言": 5052,
      "訳": 5053,
      "詹": 5054,
      "誉": 5055,
      "誊": 5056,
      "誓": 5057,
      "警": 5058,
      "譬": 5059,
      "计": 5060,
      "订": 5061,
      "认": 5062,
      "讥": 5063,
      "讧": 5064,
      "讨": 5065,
      "让": 5066,
      "讪": 5067,
      "讫": 5068,
      "训": 5069,
      "议": 5070,
      "讯": 5071,
      "记": 5072,
      "讲": 5073,
      "讳": 5074,
      "讶": 5075,
      "讷": 5076,
      "许": 5077,
      "讹": 5078,
      "论": 5079,
      "讽": 5080,
      "设": 5081,
      "访": 5082,
      "诀": 5083,
      "证": 5084,
      "评": 5085,
      "诅": 5086,
      "识": 5087,
      "诈": 5088,
      "诉": 5089,
      "诊": 5090,
      "诋": 5091,
      "诌": 5092,
      "词": 5093,
      "诏": 5094,
      "译": 5095,
      "诓": 5096,
      "诔": 5097,
      "试": 5098,
      "诖": 5099,
      "诗": 5100,
      "诘": 5101,
      "诚": 5102,
      "诛": 5103,
      "话": 5104,
      "诞": 5105,
      "诠": 5106,
      "诡": 5107,
      "询": 5108,
      "诣": 5109,
      "该": 5110,
      "详": 5111,
      "诧": 5112,
      "诩": 5113,
      "诫": 5114,
      "诬": 5115,
      "语": 5116,
      "诮": 5117,
      "误": 5118,
      "诰": 5119,
      "诱": 5120,
      "诲": 5121,
      "诳": 5122,
      "说": 5123,
      "诵": 5124,
      "诶": 5125,
      "请": 5126,
      "诸": 5127,
      "诹": 5128,
      "诺": 5129,
      "读": 5130,
      "诽": 5131,
      "课": 5132,
      "谀": 5133,
      "谁": 5134,
      "谂": 5135,
      "调": 5136,
      "谄": 5137,
      "谅": 5138,
      "谈": 5139,
      "谊": 5140,
      "谋": 5141,
      "谌": 5142,
      "谍": 5143,
      "谎": 5144,
      "谏": 5145,
      "谐": 5146,
      "谑": 5147,
      "谒": 5148,
      "谓": 5149,
      "谕": 5150,
      "谖": 5151,
      "谗": 5152,
      "谘": 5153,
      "谙": 5154,
      "谛": 5155,
      "谜": 5156,
      "谝": 5157,
      "谢": 5158,
      "谣": 5159,
      "谤": 5160,
      "谥": 5161,
      "谦": 5162,
      "谧": 5163,
      "谨": 5164,
      "谩": 5165,
      "谪": 5166,
      "谬": 5167,
      "谭": 5168,
      "谱": 5169,
      "谲": 5170,
      "谴": 5171,
      "谷": 5172,
      "豁": 5173,
      "豆": 5174,
      "豊": 5175,
      "豚": 5176,
      "象": 5177,
      "豢": 5178,
      "豪": 5179,
      "豫": 5180,
      "豹": 5181,
      "豺": 5182,
      "貂": 5183,
      "貌": 5184,
      "贝": 5185,
      "贞": 5186,
      "负": 5187,
      "贡": 5188,
      "财": 5189,
      "责": 5190,
      "贤": 5191,
      "败": 5192,
      "账": 5193,
      "货": 5194,
      "质": 5195,
      "贩": 5196,
      "贪": 5197,
      "贫": 5198,
      "贬": 5199,
      "购": 5200,
      "贯": 5201,
      "贰": 5202,
      "贱": 5203,
      "贲": 5204,
      "贴": 5205,
      "贵": 5206,
      "贷": 5207,
      "贸": 5208,
      "费": 5209,
      "贺": 5210,
      "贼": 5211,
      "贾": 5212,
      "贿": 5213,
      "赁": 5214,
      "赂": 5215,
      "赃": 5216,
      "资": 5217,
      "赋": 5218,
      "赌": 5219,
      "赎": 5220,
      "赏": 5221,
      "赐": 5222,
      "赔": 5223,
      "赖": 5224,
      "赘": 5225,
      "赚": 5226,
      "赛": 5227,
      "赞": 5228,
      "赟": 5229,
      "赠": 5230,
      "赡": 5231,
      "赢": 5232,
      "赤": 5233,
      "赦": 5234,
      "赧": 5235,
      "赫": 5236,
      "走": 5237,
      "赳": 5238,
      "赴": 5239,
      "赵": 5240,
      "赶": 5241,
      "起": 5242,
      "趁": 5243,
      "趄": 5244,
      "超": 5245,
      "越": 5246,
      "趋": 5247,
      "趐": 5248,
      "趔": 5249,
      "趟": 5250,
      "趣": 5251,
      "足": 5252,
      "趴": 5253,
      "趸": 5254,
      "趺": 5255,
      "趾": 5256,
      "跃": 5257,
      "跄": 5258,
      "跆": 5259,
      "跋": 5260,
      "跌": 5261,
      "跑": 5262,
      "跚": 5263,
      "跛": 5264,
      "距": 5265,
      "跟": 5266,
      "跤": 5267,
      "跨": 5268,
      "跪": 5269,
      "路": 5270,
      "跳": 5271,
      "践": 5272,
      "跶": 5273,
      "跷": 5274,
      "跹": 5275,
      "跺": 5276,
      "踅": 5277,
      "踉": 5278,
      "踌": 5279,
      "踏": 5280,
      "踝": 5281,
      "踞": 5282,
      "踢": 5283,
      "踩": 5284,
      "踪": 5285,
      "踫": 5286,
      "踮": 5287,
      "踱": 5288,
      "踵": 5289,
      "踹": 5290,
      "蹂": 5291,
      "蹄": 5292,
      "蹇": 5293,
      "蹈": 5294,
      "蹉": 5295,
      "蹊": 5296,
      "蹋": 5297,
      "蹑": 5298,
      "蹒": 5299,
      "蹙": 5300,
      "蹦": 5301,
      "蹩": 5302,
      "蹬": 5303,
      "蹭": 5304,
      "蹲": 5305,
      "蹴": 5306,
      "蹶": 5307,
      "蹿": 5308,
      "躁": 5309,
      "躇": 5310,
      "躏": 5311,
      "身": 5312,
      "躬": 5313,
      "躯": 5314,
      "躲": 5315,
      "躺": 5316,
      "転": 5317,
      "軽": 5318,
      "车": 5319,
      "轧": 5320,
      "轨": 5321,
      "轩": 5322,
      "转": 5323,
      "轮": 5324,
      "软": 5325,
      "轰": 5326,
      "轲": 5327,
      "轴": 5328,
      "轻": 5329,
      "载": 5330,
      "轿": 5331,
      "较": 5332,
      "辄": 5333,
      "辅": 5334,
      "辆": 5335,
      "辇": 5336,
      "辈": 5337,
      "辉": 5338,
      "辍": 5339,
      "辏": 5340,
      "辐": 5341,
      "辑": 5342,
      "输": 5343,
      "辕": 5344,
      "辖": 5345,
      "辗": 5346,
      "辘": 5347,
      "辙": 5348,
      "辛": 5349,
      "辜": 5350,
      "辞": 5351,
      "辟": 5352,
      "辣": 5353,
      "辨": 5354,
      "辩": 5355,
      "辫": 5356,
      "辰": 5357,
      "辱": 5358,
      "辶": 5359,
      "边": 5360,
      "辺": 5361,
      "込": 5362,
      "辽": 5363,
      "达": 5364,
      "迁": 5365,
      "迂": 5366,
      "迄": 5367,
      "迅": 5368,
      "过": 5369,
      "迈": 5370,
      "迎": 5371,
      "运": 5372,
      "近": 5373,
      "返": 5374,
      "还": 5375,
      "这": 5376,
      "进": 5377,
      "远": 5378,
      "违": 5379,
      "连": 5380,
      "迟": 5381,
      "迢": 5382,
      "迥": 5383,
      "迦": 5384,
      "迪": 5385,
      "迫": 5386,
      "迭": 5387,
      "述": 5388,
      "迳": 5389,
      "迷": 5390,
      "迸": 5391,
      "迹": 5392,
      "追": 5393,
      "退": 5394,
      "送": 5395,
      "适": 5396,
      "逃": 5397,
      "逅": 5398,
      "逆": 5399,
      "选": 5400,
      "逊": 5401,
      "逍": 5402,
      "透": 5403,
      "逐": 5404,
      "递": 5405,
      "途": 5406,
      "逖": 5407,
      "逗": 5408,
      "通": 5409,
      "逛": 5410,
      "逝": 5411,
      "逞": 5412,
      "速": 5413,
      "造": 5414,
      "逡": 5415,
      "逢": 5416,
      "逮": 5417,
      "逸": 5418,
      "逻": 5419,
      "逼": 5420,
      "逾": 5421,
      "遁": 5422,
      "遂": 5423,
      "遄": 5424,
      "遇": 5425,
      "遍": 5426,
      "遏": 5427,
      "遐": 5428,
      "遑": 5429,
      "道": 5430,
      "遗": 5431,
      "遛": 5432,
      "遢": 5433,
      "遣": 5434,
      "遥": 5435,
      "遨": 5436,
      "遭": 5437,
      "遮": 5438,
      "遵": 5439,
      "遽": 5440,
      "避": 5441,
      "邀": 5442,
      "邂": 5443,
      "邃": 5444,
      "邋": 5445,
      "邑": 5446,
      "邓": 5447,
      "邕": 5448,
      "邢": 5449,
      "那": 5450,
      "邦": 5451,
      "邪": 5452,
      "邬": 5453,
      "邮": 5454,
      "邯": 5455,
      "邱": 5456,
      "邵": 5457,
      "邸": 5458,
      "邹": 5459,
      "邻": 5460,
      "郁": 5461,
      "郊": 5462,
      "郎": 5463,
      "郏": 5464,
      "郑": 5465,
      "郗": 5466,
      "郝": 5467,
      "郡": 5468,
      "郦": 5469,
      "部": 5470,
      "郭": 5471,
      "郸": 5472,
      "都": 5473,
      "鄂": 5474,
      "鄙": 5475,
      "鄞": 5476,
      "鄣": 5477,
      "鄱": 5478,
      "酆": 5479,
      "酉": 5480,
      "酊": 5481,
      "酋": 5482,
      "酌": 5483,
      "配": 5484,
      "酒": 5485,
      "酗": 5486,
      "酝": 5487,
      "酡": 5488,
      "酣": 5489,
      "酥": 5490,
      "酩": 5491,
      "酪": 5492,
      "酬": 5493,
      "酮": 5494,
      "酰": 5495,
      "酱": 5496,
      "酵": 5497,
      "酶": 5498,
      "酷": 5499,
      "酸": 5500,
      "酿": 5501,
      "醇": 5502,
      "醉": 5503,
      "醋": 5504,
      "醒": 5505,
      "醮": 5506,
      "醯": 5507,
      "醺": 5508,
      "采": 5509,
      "釉": 5510,
      "释": 5511,
      "里": 5512,
      "重": 5513,
      "野": 5514,
      "量": 5515,
      "金": 5516,
      "鉴": 5517,
      "銮": 5518,
      "鋈": 5519,
      "錾": 5520,
      "鎏": 5521,
      "鏖": 5522,
      "鑫": 5523,
      "针": 5524,
      "钉": 5525,
      "钌": 5526,
      "钏": 5527,
      "钓": 5528,
      "钗": 5529,
      "钘": 5530,
      "钛": 5531,
      "钜": 5532,
      "钝": 5533,
      "钞": 5534,
      "钟": 5535,
      "钠": 5536,
      "钡": 5537,
      "钢": 5538,
      "钥": 5539,
      "钦": 5540,
      "钧": 5541,
      "钩": 5542,
      "钮": 5543,
      "钰": 5544,
      "钱": 5545,
      "钳": 5546,
      "钵": 5547,
      "钻": 5548,
      "钿": 5549,
      "铀": 5550,
      "铁": 5551,
      "铂": 5552,
      "铃": 5553,
      "铅": 5554,
      "铎": 5555,
      "铐": 5556,
      "铛": 5557,
      "铜": 5558,
      "铝": 5559,
      "铠": 5560,
      "铡": 5561,
      "铢": 5562,
      "铣": 5563,
      "铤": 5564,
      "铩": 5565,
      "铭": 5566,
      "铮": 5567,
      "铱": 5568,
      "铲": 5569,
      "铳": 5570,
      "银": 5571,
      "铸": 5572,
      "铺": 5573,
      "链": 5574,
      "铿": 5575,
      "销": 5576,
      "锁": 5577,
      "锃": 5578,
      "锄": 5579,
      "锅": 5580,
      "锇": 5581,
      "锈": 5582,
      "锉": 5583,
      "锊": 5584,
      "锋": 5585,
      "锌": 5586,
      "锍": 5587,
      "锎": 5588,
      "锏": 5589,
      "锐": 5590,
      "锘": 5591,
      "错": 5592,
      "锚": 5593,
      "锛": 5594,
      "锝": 5595,
      "锡": 5596,
      "锢": 5597,
      "锤": 5598,
      "锥": 5599,
      "锦": 5600,
      "锩": 5601,
      "锪": 5602,
      "锬": 5603,
      "锭": 5604,
      "键": 5605,
      "锯": 5606,
      "锰": 5607,
      "锲": 5608,
      "锳": 5609,
      "锴": 5610,
      "锵": 5611,
      "锶": 5612,
      "锸": 5613,
      "锹": 5614,
      "锺": 5615,
      "锻": 5616,
      "锿": 5617,
      "镀": 5618,
      "镁": 5619,
      "镂": 5620,
      "镆": 5621,
      "镇": 5622,
      "镉": 5623,
      "镊": 5624,
      "镌": 5625,
      "镐": 5626,
      "镖": 5627,
      "镜": 5628,
      "镣": 5629,
      "镫": 5630,
      "镯": 5631,
      "镰": 5632,
      "镳": 5633,
      "镶": 5634,
      "长": 5635,
      "闘": 5636,
      "门": 5637,
      "闩": 5638,
      "闪": 5639,
      "闫": 5640,
      "闭": 5641,
      "问": 5642,
      "闯": 5643,
      "闰": 5644,
      "闲": 5645,
      "间": 5646,
      "闵": 5647,
      "闷": 5648,
      "闸": 5649,
      "闹": 5650,
      "闺": 5651,
      "闻": 5652,
      "闼": 5653,
      "阀": 5654,
      "阁": 5655,
      "阂": 5656,
      "阅": 5657,
      "阈": 5658,
      "阉": 5659,
      "阋": 5660,
      "阎": 5661,
      "阐": 5662,
      "阑": 5663,
      "阔": 5664,
      "阖": 5665,
      "阙": 5666,
      "阜": 5667,
      "队": 5668,
      "阪": 5669,
      "阮": 5670,
      "阱": 5671,
      "防": 5672,
      "阳": 5673,
      "阴": 5674,
      "阵": 5675,
      "阶": 5676,
      "阻": 5677,
      "阿": 5678,
      "陀": 5679,
      "附": 5680,
      "际": 5681,
      "陆": 5682,
      "陈": 5683,
      "陋": 5684,
      "陌": 5685,
      "降": 5686,
      "限": 5687,
      "陛": 5688,
      "陡": 5689,
      "院": 5690,
      "除": 5691,
      "陨": 5692,
      "险": 5693,
      "陪": 5694,
      "陲": 5695,
      "陵": 5696,
      "陶": 5697,
      "陷": 5698,
      "険": 5699,
      "隅": 5700,
      "隆": 5701,
      "隋": 5702,
      "随": 5703,
      "隐": 5704,
      "隔": 5705,
      "隘": 5706,
      "隙": 5707,
      "障": 5708,
      "隠": 5709,
      "隣": 5710,
      "隧": 5711,
      "隶": 5712,
      "隷": 5713,
      "隼": 5714,
      "隽": 5715,
      "难": 5716,
      "雀": 5717,
      "雁": 5718,
      "雄": 5719,
      "雅": 5720,
      "集": 5721,
      "雇": 5722,
      "雉": 5723,
      "雌": 5724,
      "雍": 5725,
      "雎": 5726,
      "雏": 5727,
      "雕": 5728,
      "雨": 5729,
      "雩": 5730,
      "雪": 5731,
      "雫": 5732,
      "雯": 5733,
      "雳": 5734,
      "零": 5735,
      "雷": 5736,
      "雾": 5737,
      "需": 5738,
      "霁": 5739,
      "霄": 5740,
      "霆": 5741,
      "震": 5742,
      "霈": 5743,
      "霉": 5744,
      "霊": 5745,
      "霍": 5746,
      "霎": 5747,
      "霏": 5748,
      "霓": 5749,
      "霖": 5750,
      "霜": 5751,
      "霞": 5752,
      "霭": 5753,
      "露": 5754,
      "霸": 5755,
      "霹": 5756,
      "霾": 5757,
      "青": 5758,
      "靓": 5759,
      "靖": 5760,
      "静": 5761,
      "靛": 5762,
      "非": 5763,
      "靠": 5764,
      "靡": 5765,
      "面": 5766,
      "靥": 5767,
      "革": 5768,
      "靳": 5769,
      "靴": 5770,
      "靶": 5771,
      "鞋": 5772,
      "鞍": 5773,
      "鞑": 5774,
      "鞒": 5775,
      "鞘": 5776,
      "鞠": 5777,
      "鞭": 5778,
      "鞯": 5779,
      "韦": 5780,
      "韧": 5781,
      "韩": 5782,
      "韪": 5783,
      "韬": 5784,
      "韭": 5785,
      "音": 5786,
      "韵": 5787,
      "韶": 5788,
      "頬": 5789,
      "頼": 5790,
      "页": 5791,
      "顶": 5792,
      "顷": 5793,
      "项": 5794,
      "顺": 5795,
      "须": 5796,
      "顽": 5797,
      "顾": 5798,
      "顿": 5799,
      "颀": 5800,
      "颁": 5801,
      "颂": 5802,
      "预": 5803,
      "颅": 5804,
      "领": 5805,
      "颇": 5806,
      "颈": 5807,
      "颊": 5808,
      "颌": 5809,
      "颍": 5810,
      "颏": 5811,
      "颐": 5812,
      "频": 5813,
      "颓": 5814,
      "颔": 5815,
      "颖": 5816,
      "颗": 5817,
      "题": 5818,
      "颚": 5819,
      "颜": 5820,
      "额": 5821,
      "颠": 5822,
      "颤": 5823,
      "颦": 5824,
      "颧": 5825,
      "风": 5826,
      "飒": 5827,
      "飓": 5828,
      "飕": 5829,
      "飘": 5830,
      "飙": 5831,
      "飚": 5832,
      "飞": 5833,
      "食": 5834,
      "飧": 5835,
      "飨": 5836,
      "餍": 5837,
      "餐": 5838,
      "餮": 5839,
      "饕": 5840,
      "饥": 5841,
      "饧": 5842,
      "饨": 5843,
      "饪": 5844,
      "饬": 5845,
      "饭": 5846,
      "饮": 5847,
      "饰": 5848,
      "饱": 5849,
      "饲": 5850,
      "饴": 5851,
      "饵": 5852,
      "饶": 5853,
      "饷": 5854,
      "饺": 5855,
      "饼": 5856,
      "饿": 5857,
      "馀": 5858,
      "馁": 5859,
      "馄": 5860,
      "馅": 5861,
      "馆": 5862,
      "馈": 5863,
      "馊": 5864,
      "馋": 5865,
      "馍": 5866,
      "馐": 5867,
      "馒": 5868,
      "馔": 5869,
      "首": 5870,
      "香": 5871,
      "馥": 5872,
      "馨": 5873,
      "駄": 5874,
      "駆": 5875,
      "騒": 5876,
      "験": 5877,
      "马": 5878,
      "驭": 5879,
      "驮": 5880,
      "驯": 5881,
      "驰": 5882,
      "驱": 5883,
      "驳": 5884,
      "驴": 5885,
      "驶": 5886,
      "驷": 5887,
      "驸": 5888,
      "驹": 5889,
      "驻": 5890,
      "驼": 5891,
      "驾": 5892,
      "驿": 5893,
      "骁": 5894,
      "骂": 5895,
      "骄": 5896,
      "骆": 5897,
      "骇": 5898,
      "骊": 5899,
      "骋": 5900,
      "验": 5901,
      "骏": 5902,
      "骑": 5903,
      "骗": 5904,
      "骚": 5905,
      "骛": 5906,
      "骜": 5907,
      "骞": 5908,
      "骡": 5909,
      "骤": 5910,
      "骧": 5911,
      "骨": 5912,
      "骰": 5913,
      "骷": 5914,
      "骸": 5915,
      "骼": 5916,
      "髁": 5917,
      "髅": 5918,
      "髋": 5919,
      "髓": 5920,
      "高": 5921,
      "髦": 5922,
      "髪": 5923,
      "髯": 5924,
      "髻": 5925,
      "鬃": 5926,
      "鬈": 5927,
      "鬓": 5928,
      "鬟": 5929,
      "鬣": 5930,
      "鬼": 5931,
      "魁": 5932,
      "魂": 5933,
      "魄": 5934,
      "魅": 5935,
      "魇": 5936,
      "魈": 5937,
      "魉": 5938,
      "魍": 5939,
      "魏": 5940,
      "魑": 5941,
      "魔": 5942,
      "鱼": 5943,
      "鱿": 5944,
      "鲁": 5945,
      "鲂": 5946,
      "鲆": 5947,
      "鲍": 5948,
      "鲎": 5949,
      "鲛": 5950,
      "鲜": 5951,
      "鲤": 5952,
      "鲨": 5953,
      "鲲": 5954,
      "鲸": 5955,
      "鳄": 5956,
      "鳅": 5957,
      "鳌": 5958,
      "鳍": 5959,
      "鳎": 5960,
      "鳖": 5961,
      "鳗": 5962,
      "鳞": 5963,
      "鸟": 5964,
      "鸠": 5965,
      "鸡": 5966,
      "鸢": 5967,
      "鸣": 5968,
      "鸥": 5969,
      "鸦": 5970,
      "鸨": 5971,
      "鸩": 5972,
      "鸫": 5973,
      "鸬": 5974,
      "鸭": 5975,
      "鸮": 5976,
      "鸯": 5977,
      "鸳": 5978,
      "鸵": 5979,
      "鸷": 5980,
      "鸽": 5981,
      "鸾": 5982,
      "鸿": 5983,
      "鹂": 5984,
      "鹃": 5985,
      "鹄": 5986,
      "鹅": 5987,
      "鹉": 5988,
      "鹊": 5989,
      "鹏": 5990,
      "鹜": 5991,
      "鹤": 5992,
      "鹦": 5993,
      "鹫": 5994,
      "鹭": 5995,
      "鹰": 5996,
      "鹾": 5997,
      "鹿": 5998,
      "麒": 5999,
      "麓": 6000,
      "麝": 6001,
      "麟": 6002,
      "麦": 6003,
      "麻": 6004,
      "麾": 6005,
      "麿": 6006,
      "黄": 6007,
      "黎": 6008,
      "黏": 6009,
      "黑": 6010,
      "黒": 6011,
      "默": 6012,
      "黙": 6013,
      "黛": 6014,
      "黝": 6015,
      "黠": 6016,
      "黯": 6017,
      "鼎": 6018,
      "鼓": 6019,
      "鼠": 6020,
      "鼬": 6021,
      "鼻": 6022,
      "鼾": 6023,
      "齁": 6024,
      "齐": 6025,
      "齑": 6026,
      "齿": 6027,
      "龄": 6028,
      "龅": 6029,
      "龇": 6030,
      "龈": 6031,
      "龊": 6032,
      "龋": 6033,
      "龌": 6034,
      "龙": 6035,
      "龚": 6036,
      "龟": 6037,
      "ꞏ": 6038,
      "": 6039,
      "︎": 6040,
      "️": 6041,
      "﻿": 6042,
      "￼": 6043,
      "�": 6044,
      "🀀": 6045,
      "🀁": 6046,
      "🀂": 6047,
      "🀃": 6048,
      "🀄": 6049,
      "🀅": 6050,
      "🀆": 6051,
      "🀇": 6052,
      "🀈": 6053,
      "🀉": 6054,
      "🀊": 6055,
      "🀋": 6056,
      "🀌": 6057,
      "🀍": 6058,
      "🀎": 6059,
      "🀏": 6060,
      "🀐": 6061,
      "🀑": 6062,
      "🀒": 6063,
      "🀓": 6064,
      "🀔": 6065,
      "🀕": 6066,
      "🀖": 6067,
      "🀗": 6068,
      "🀘": 6069,
      "🀙": 6070,
      "🀚": 6071,
      "🀛": 6072,
      "🀜": 6073,
      "🀝": 6074,
      "🀞": 6075,
      "🀟": 6076,
      "🀠": 6077,
      "🀡": 6078,
      "🀢": 6079,
      "🀣": 6080,
      "🀥": 6081,
      "🀦": 6082,
      "🀨": 6083,
      "🀩": 6084,
      "🀪": 6085,
      "🃏": 6086,
      "🅰": 6087,
      "🅱": 6088,
      "🅾": 6089,
      "🅿": 6090,
      "🆎": 6091,
      "🆑": 6092,
      "🆒": 6093,
      "🆓": 6094,
      "🆔": 6095,
      "🆕": 6096,
      "🆖": 6097,
      "🆗": 6098,
      "🆘": 6099,
      "🆙": 6100,
      "🆚": 6101,
      "🇦": 6102,
      "🇧": 6103,
      "🇨": 6104,
      "🇩": 6105,
      "🇪": 6106,
      "🇫": 6107,
      "🇬": 6108,
      "🇭": 6109,
      "🇮": 6110,
      "🇯": 6111,
      "🇰": 6112,
      "🇱": 6113,
      "🇲": 6114,
      "🇳": 6115,
      "🇴": 6116,
      "🇵": 6117,
      "🇶": 6118,
      "🇷": 6119,
      "🇸": 6120,
      "🇹": 6121,
      "🇺": 6122,
      "🇻": 6123,
      "🇼": 6124,
      "🇽": 6125,
      "🇾": 6126,
      "🇿": 6127,
      "🈁": 6128,
      "🈂": 6129,
      "🈚": 6130,
      "🈯": 6131,
      "🈲": 6132,
      "🈳": 6133,
      "🈴": 6134,
      "🈵": 6135,
      "🈶": 6136,
      "🈷": 6137,
      "🈸": 6138,
      "🈹": 6139,
      "🈺": 6140,
      "🉐": 6141,
      "🉑": 6142,
      "🌀": 6143,
      "🌁": 6144,
      "🌂": 6145,
      "🌃": 6146,
      "🌄": 6147,
      "🌅": 6148,
      "🌆": 6149,
      "🌇": 6150,
      "🌈": 6151,
      "🌉": 6152,
      "🌊": 6153,
      "🌋": 6154,
      "🌌": 6155,
      "🌍": 6156,
      "🌎": 6157,
      "🌏": 6158,
      "🌐": 6159,
      "🌑": 6160,
      "🌒": 6161,
      "🌓": 6162,
      "🌔": 6163,
      "🌕": 6164,
      "🌖": 6165,
      "🌗": 6166,
      "🌘": 6167,
      "🌙": 6168,
      "🌚": 6169,
      "🌛": 6170,
      "🌜": 6171,
      "🌝": 6172,
      "🌞": 6173,
      "🌟": 6174,
      "🌠": 6175,
      "🌡": 6176,
      "🌢": 6177,
      "🌣": 6178,
      "🌤": 6179,
      "🌥": 6180,
      "🌦": 6181,
      "🌧": 6182,
      "🌨": 6183,
      "🌩": 6184,
      "🌪": 6185,
      "🌫": 6186,
      "🌬": 6187,
      "🌭": 6188,
      "🌮": 6189,
      "🌯": 6190,
      "🌰": 6191,
      "🌱": 6192,
      "🌲": 6193,
      "🌳": 6194,
      "🌴": 6195,
      "🌵": 6196,
      "🌶": 6197,
      "🌷": 6198,
      "🌸": 6199,
      "🌹": 6200,
      "🌺": 6201,
      "🌻": 6202,
      "🌼": 6203,
      "🌽": 6204,
      "🌾": 6205,
      "🌿": 6206,
      "🍀": 6207,
      "🍁": 6208,
      "🍂": 6209,
      "🍃": 6210,
      "🍄": 6211,
      "🍅": 6212,
      "🍆": 6213,
      "🍇": 6214,
      "🍈": 6215,
      "🍉": 6216,
      "🍊": 6217,
      "🍋": 6218,
      "🍌": 6219,
      "🍍": 6220,
      "🍎": 6221,
      "🍏": 6222,
      "🍐": 6223,
      "🍑": 6224,
      "🍒": 6225,
      "🍓": 6226,
      "🍔": 6227,
      "🍕": 6228,
      "🍖": 6229,
      "🍗": 6230,
      "🍘": 6231,
      "🍙": 6232,
      "🍚": 6233,
      "🍛": 6234,
      "🍜": 6235,
      "🍝": 6236,
      "🍞": 6237,
      "🍟": 6238,
      "🍠": 6239,
      "🍡": 6240,
      "🍢": 6241,
      "🍣": 6242,
      "🍤": 6243,
      "🍥": 6244,
      "🍦": 6245,
      "🍧": 6246,
      "🍨": 6247,
      "🍩": 6248,
      "🍪": 6249,
      "🍫": 6250,
      "🍬": 6251,
      "🍭": 6252,
      "🍮": 6253,
      "🍯": 6254,
      "🍰": 6255,
      "🍱": 6256,
      "🍲": 6257,
      "🍳": 6258,
      "🍴": 6259,
      "🍵": 6260,
      "🍶": 6261,
      "🍷": 6262,
      "🍸": 6263,
      "🍹": 6264,
      "🍺": 6265,
      "🍻": 6266,
      "🍼": 6267,
      "🍽": 6268,
      "🍾": 6269,
      "🍿": 6270,
      "🎀": 6271,
      "🎁": 6272,
      "🎂": 6273,
      "🎃": 6274,
      "🎄": 6275,
      "🎅": 6276,
      "🎆": 6277,
      "🎇": 6278,
      "🎈": 6279,
      "🎉": 6280,
      "🎊": 6281,
      "🎋": 6282,
      "🎌": 6283,
      "🎍": 6284,
      "🎎": 6285,
      "🎏": 6286,
      "🎐": 6287,
      "🎑": 6288,
      "🎒": 6289,
      "🎓": 6290,
      "🎕": 6291,
      "🎖": 6292,
      "🎗": 6293,
      "🎙": 6294,
      "🎚": 6295,
      "🎛": 6296,
      "🎞": 6297,
      "🎟": 6298,
      "🎠": 6299,
      "🎡": 6300,
      "🎢": 6301,
      "🎣": 6302,
      "🎤": 6303,
      "🎥": 6304,
      "🎦": 6305,
      "🎧": 6306,
      "🎨": 6307,
      "🎩": 6308,
      "🎪": 6309,
      "🎫": 6310,
      "🎬": 6311,
      "🎭": 6312,
      "🎮": 6313,
      "🎯": 6314,
      "🎰": 6315,
      "🎱": 6316,
      "🎲": 6317,
      "🎳": 6318,
      "🎴": 6319,
      "🎵": 6320,
      "🎶": 6321,
      "🎷": 6322,
      "🎸": 6323,
      "🎹": 6324,
      "🎺": 6325,
      "🎻": 6326,
      "🎼": 6327,
      "🎽": 6328,
      "🎾": 6329,
      "🎿": 6330,
      "🏀": 6331,
      "🏁": 6332,
      "🏂": 6333,
      "🏃": 6334,
      "🏄": 6335,
      "🏅": 6336,
      "🏆": 6337,
      "🏇": 6338,
      "🏈": 6339,
      "🏉": 6340,
      "🏊": 6341,
      "🏋": 6342,
      "🏌": 6343,
      "🏍": 6344,
      "🏎": 6345,
      "🏏": 6346,
      "🏐": 6347,
      "🏑": 6348,
      "🏒": 6349,
      "🏓": 6350,
      "🏔": 6351,
      "🏕": 6352,
      "🏖": 6353,
      "🏗": 6354,
      "🏘": 6355,
      "🏙": 6356,
      "🏚": 6357,
      "🏛": 6358,
      "🏜": 6359,
      "🏝": 6360,
      "🏞": 6361,
      "🏟": 6362,
      "🏠": 6363,
      "🏡": 6364,
      "🏢": 6365,
      "🏣": 6366,
      "🏤": 6367,
      "🏥": 6368,
      "🏦": 6369,
      "🏧": 6370,
      "🏨": 6371,
      "🏩": 6372,
      "🏪": 6373,
      "🏫": 6374,
      "🏬": 6375,
      "🏭": 6376,
      "🏮": 6377,
      "🏯": 6378,
      "🏰": 6379,
      "🏳": 6380,
      "🏴": 6381,
      "🏵": 6382,
      "🏸": 6383,
      "🏹": 6384,
      "🏺": 6385,
      "🏻": 6386,
      "🐀": 6387,
      "🐁": 6388,
      "🐂": 6389,
      "🐃": 6390,
      "🐄": 6391,
      "🐅": 6392,
      "🐆": 6393,
      "🐇": 6394,
      "🐈": 6395,
      "🐉": 6396,
      "🐊": 6397,
      "🐋": 6398,
      "🐌": 6399,
      "🐍": 6400,
      "🐎": 6401,
      "🐏": 6402,
      "🐐": 6403,
      "🐑": 6404,
      "🐒": 6405,
      "🐓": 6406,
      "🐔": 6407,
      "🐕": 6408,
      "🐖": 6409,
      "🐗": 6410,
      "🐘": 6411,
      "🐙": 6412,
      "🐚": 6413,
      "🐛": 6414,
      "🐜": 6415,
      "🐝": 6416,
      "🐞": 6417,
      "🐟": 6418,
      "🐠": 6419,
      "🐡": 6420,
      "🐢": 6421,
      "🐣": 6422,
      "🐤": 6423,
      "🐥": 6424,
      "🐦": 6425,
      "🐧": 6426,
      "🐨": 6427,
      "🐩": 6428,
      "🐪": 6429,
      "🐫": 6430,
      "🐬": 6431,
      "🐭": 6432,
      "🐮": 6433,
      "🐯": 6434,
      "🐰": 6435,
      "🐱": 6436,
      "🐲": 6437,
      "🐳": 6438,
      "🐴": 6439,
      "🐵": 6440,
      "🐶": 6441,
      "🐷": 6442,
      "🐸": 6443,
      "🐹": 6444,
      "🐺": 6445,
      "🐻": 6446,
      "🐼": 6447,
      "🐽": 6448,
      "🐾": 6449,
      "🐿": 6450,
      "👀": 6451,
      "👁": 6452,
      "👂": 6453,
      "👃": 6454,
      "👄": 6455,
      "👅": 6456,
      "👆": 6457,
      "👇": 6458,
      "👈": 6459,
      "👉": 6460,
      "👊": 6461,
      "👋": 6462,
      "👌": 6463,
      "👍": 6464,
      "👎": 6465,
      "👏": 6466,
      "👐": 6467,
      "👑": 6468,
      "👒": 6469,
      "👓": 6470,
      "👔": 6471,
      "👕": 6472,
      "👖": 6473,
      "👗": 6474,
      "👘": 6475,
      "👙": 6476,
      "👚": 6477,
      "👛": 6478,
      "👜": 6479,
      "👝": 6480,
      "👞": 6481,
      "👟": 6482,
      "👠": 6483,
      "👡": 6484,
      "👢": 6485,
      "👣": 6486,
      "👤": 6487,
      "👥": 6488,
      "👦": 6489,
      "👧": 6490,
      "👨": 6491,
      "👩": 6492,
      "👪": 6493,
      "👫": 6494,
      "👬": 6495,
      "👭": 6496,
      "👮": 6497,
      "👰": 6498,
      "👱": 6499,
      "👲": 6500,
      "👳": 6501,
      "👴": 6502,
      "👵": 6503,
      "👶": 6504,
      "👷": 6505,
      "👸": 6506,
      "👹": 6507,
      "👺": 6508,
      "👻": 6509,
      "👼": 6510,
      "👽": 6511,
      "👾": 6512,
      "👿": 6513,
      "💀": 6514,
      "💁": 6515,
      "💂": 6516,
      "💄": 6517,
      "💅": 6518,
      "💆": 6519,
      "💇": 6520,
      "💈": 6521,
      "💉": 6522,
      "💊": 6523,
      "💋": 6524,
      "💌": 6525,
      "💍": 6526,
      "💎": 6527,
      "💏": 6528,
      "💐": 6529,
      "💑": 6530,
      "💒": 6531,
      "💓": 6532,
      "💔": 6533,
      "💕": 6534,
      "💖": 6535,
      "💗": 6536,
      "💘": 6537,
      "💙": 6538,
      "💚": 6539,
      "💛": 6540,
      "💜": 6541,
      "💝": 6542,
      "💞": 6543,
      "💟": 6544,
      "💠": 6545,
      "💡": 6546,
      "💢": 6547,
      "💣": 6548,
      "💤": 6549,
      "💥": 6550,
      "💦": 6551,
      "💧": 6552,
      "💨": 6553,
      "💩": 6554,
      "💪": 6555,
      "💫": 6556,
      "💬": 6557,
      "💭": 6558,
      "💮": 6559,
      "💯": 6560,
      "💰": 6561,
      "💱": 6562,
      "💲": 6563,
      "💳": 6564,
      "💴": 6565,
      "💵": 6566,
      "💶": 6567,
      "💸": 6568,
      "💹": 6569,
      "💺": 6570,
      "💻": 6571,
      "💼": 6572,
      "💽": 6573,
      "💾": 6574,
      "💿": 6575,
      "📀": 6576,
      "📁": 6577,
      "📂": 6578,
      "📄": 6579,
      "📅": 6580,
      "📆": 6581,
      "📇": 6582,
      "📈": 6583,
      "📉": 6584,
      "📊": 6585,
      "📋": 6586,
      "📌": 6587,
      "📍": 6588,
      "📎": 6589,
      "📏": 6590,
      "📐": 6591,
      "📑": 6592,
      "📒": 6593,
      "📓": 6594,
      "📔": 6595,
      "📕": 6596,
      "📖": 6597,
      "📗": 6598,
      "📘": 6599,
      "📙": 6600,
      "📚": 6601,
      "📛": 6602,
      "📜": 6603,
      "📝": 6604,
      "📞": 6605,
      "📟": 6606,
      "📠": 6607,
      "📡": 6608,
      "📢": 6609,
      "📣": 6610,
      "📤": 6611,
      "📥": 6612,
      "📦": 6613,
      "📧": 6614,
      "📨": 6615,
      "📩": 6616,
      "📮": 6617,
      "📯": 6618,
      "📰": 6619,
      "📱": 6620,
      "📲": 6621,
      "📳": 6622,
      "📴": 6623,
      "📵": 6624,
      "📶": 6625,
      "📷": 6626,
      "📹": 6627,
      "📺": 6628,
      "📻": 6629,
      "📼": 6630,
      "📿": 6631,
      "🔀": 6632,
      "🔁": 6633,
      "🔂": 6634,
      "🔃": 6635,
      "🔄": 6636,
      "🔅": 6637,
      "🔆": 6638,
      "🔇": 6639,
      "🔈": 6640,
      "🔉": 6641,
      "🔊": 6642,
      "🔋": 6643,
      "🔌": 6644,
      "🔍": 6645,
      "🔎": 6646,
      "🔏": 6647,
      "🔐": 6648,
      "🔑": 6649,
      "🔒": 6650,
      "🔓": 6651,
      "🔔": 6652,
      "🔕": 6653,
      "🔖": 6654,
      "🔗": 6655,
      "🔘": 6656,
      "🔙": 6657,
      "🔚": 6658,
      "🔛": 6659,
      "🔜": 6660,
      "🔝": 6661,
      "🔞": 6662,
      "🔟": 6663,
      "🔠": 6664,
      "🔡": 6665,
      "🔢": 6666,
      "🔣": 6667,
      "🔤": 6668,
      "🔥": 6669,
      "🔦": 6670,
      "🔧": 6671,
      "🔨": 6672,
      "🔩": 6673,
      "🔪": 6674,
      "🔫": 6675,
      "🔬": 6676,
      "🔭": 6677,
      "🔮": 6678,
      "🔯": 6679,
      "🔰": 6680,
      "🔱": 6681,
      "🔲": 6682,
      "🔳": 6683,
      "🔴": 6684,
      "🔵": 6685,
      "🔶": 6686,
      "🔷": 6687,
      "🔸": 6688,
      "🔹": 6689,
      "🔺": 6690,
      "🔻": 6691,
      "🔼": 6692,
      "🔽": 6693,
      "🕆": 6694,
      "🕉": 6695,
      "🕊": 6696,
      "🕋": 6697,
      "🕌": 6698,
      "🕍": 6699,
      "🕎": 6700,
      "🕐": 6701,
      "🕑": 6702,
      "🕒": 6703,
      "🕓": 6704,
      "🕔": 6705,
      "🕕": 6706,
      "🕖": 6707,
      "🕗": 6708,
      "🕘": 6709,
      "🕙": 6710,
      "🕚": 6711,
      "🕛": 6712,
      "🕜": 6713,
      "🕝": 6714,
      "🕞": 6715,
      "🕟": 6716,
      "🕠": 6717,
      "🕡": 6718,
      "🕢": 6719,
      "🕣": 6720,
      "🕤": 6721,
      "🕥": 6722,
      "🕦": 6723,
      "🕧": 6724,
      "🕭": 6725,
      "🕯": 6726,
      "🕰": 6727,
      "🕱": 6728,
      "🕳": 6729,
      "🕶": 6730,
      "🕷": 6731,
      "🕸": 6732,
      "🕹": 6733,
      "🕿": 6734,
      "🖂": 6735,
      "🖊": 6736,
      "🖋": 6737,
      "🖌": 6738,
      "🖍": 6739,
      "🖐": 6740,
      "🖒": 6741,
      "🖕": 6742,
      "🖖": 6743,
      "🖤": 6744,
      "🖥": 6745,
      "🖨": 6746,
      "🖱": 6747,
      "🖲": 6748,
      "🖼": 6749,
      "🗃": 6750,
      "🗄": 6751,
      "🗑": 6752,
      "🗒": 6753,
      "🗓": 6754,
      "🗔": 6755,
      "🗜": 6756,
      "🗝": 6757,
      "🗞": 6758,
      "🗡": 6759,
      "🗣": 6760,
      "🗦": 6761,
      "🗧": 6762,
      "🗨": 6763,
      "🗪": 6764,
      "🗯": 6765,
      "🗲": 6766,
      "🗳": 6767,
      "🗴": 6768,
      "🗶": 6769,
      "🗸": 6770,
      "🗹": 6771,
      "🗺": 6772,
      "🗻": 6773,
      "🗼": 6774,
      "🗽": 6775,
      "🗾": 6776,
      "🗿": 6777,
      "😀": 6778,
      "😁": 6779,
      "😂": 6780,
      "😃": 6781,
      "😄": 6782,
      "😅": 6783,
      "😆": 6784,
      "😇": 6785,
      "😈": 6786,
      "😉": 6787,
      "😊": 6788,
      "😋": 6789,
      "😌": 6790,
      "😍": 6791,
      "😎": 6792,
      "😏": 6793,
      "😐": 6794,
      "😑": 6795,
      "😒": 6796,
      "😓": 6797,
      "😔": 6798,
      "😕": 6799,
      "😖": 6800,
      "😗": 6801,
      "😘": 6802,
      "😙": 6803,
      "😚": 6804,
      "😛": 6805,
      "😜": 6806,
      "😝": 6807,
      "😞": 6808,
      "😟": 6809,
      "😠": 6810,
      "😡": 6811,
      "😢": 6812,
      "😣": 6813,
      "😤": 6814,
      "😥": 6815,
      "😦": 6816,
      "😧": 6817,
      "😨": 6818,
      "😩": 6819,
      "😪": 6820,
      "😫": 6821,
      "😬": 6822,
      "😭": 6823,
      "😮": 6824,
      "😯": 6825,
      "😰": 6826,
      "😱": 6827,
      "😲": 6828,
      "😳": 6829,
      "😴": 6830,
      "😵": 6831,
      "😶": 6832,
      "😷": 6833,
      "😸": 6834,
      "😹": 6835,
      "😺": 6836,
      "😻": 6837,
      "😼": 6838,
      "😽": 6839,
      "😾": 6840,
      "😿": 6841,
      "🙀": 6842,
      "🙁": 6843,
      "🙂": 6844,
      "🙃": 6845,
      "🙄": 6846,
      "🙅": 6847,
      "🙆": 6848,
      "🙇": 6849,
      "🙈": 6850,
      "🙉": 6851,
      "🙊": 6852,
      "🙋": 6853,
      "🙌": 6854,
      "🙍": 6855,
      "🙎": 6856,
      "🙏": 6857,
      "🚀": 6858,
      "🚁": 6859,
      "🚂": 6860,
      "🚃": 6861,
      "🚄": 6862,
      "🚅": 6863,
      "🚆": 6864,
      "🚇": 6865,
      "🚈": 6866,
      "🚉": 6867,
      "🚊": 6868,
      "🚋": 6869,
      "🚌": 6870,
      "🚍": 6871,
      "🚎": 6872,
      "🚏": 6873,
      "🚐": 6874,
      "🚑": 6875,
      "🚒": 6876,
      "🚓": 6877,
      "🚔": 6878,
      "🚕": 6879,
      "🚖": 6880,
      "🚗": 6881,
      "🚘": 6882,
      "🚙": 6883,
      "🚚": 6884,
      "🚛": 6885,
      "🚜": 6886,
      "🚝": 6887,
      "🚞": 6888,
      "🚟": 6889,
      "🚠": 6890,
      "🚡": 6891,
      "🚢": 6892,
      "🚣": 6893,
      "🚤": 6894,
      "🚥": 6895,
      "🚦": 6896,
      "🚧": 6897,
      "🚨": 6898,
      "🚩": 6899,
      "🚪": 6900,
      "🚫": 6901,
      "🚬": 6902,
      "🚭": 6903,
      "🚮": 6904,
      "🚯": 6905,
      "🚰": 6906,
      "🚱": 6907,
      "🚲": 6908,
      "🚳": 6909,
      "🚴": 6910,
      "🚵": 6911,
      "🚶": 6912,
      "🚸": 6913,
      "🚹": 6914,
      "🚺": 6915,
      "🚻": 6916,
      "🚼": 6917,
      "🚽": 6918,
      "🚾": 6919,
      "🚿": 6920,
      "🛀": 6921,
      "🛁": 6922,
      "🛂": 6923,
      "🛃": 6924,
      "🛄": 6925,
      "🛅": 6926,
      "🛆": 6927,
      "🛈": 6928,
      "🛉": 6929,
      "🛊": 6930,
      "🛋": 6931,
      "🛌": 6932,
      "🛍": 6933,
      "🛎": 6934,
      "🛏": 6935,
      "🛐": 6936,
      "🛑": 6937,
      "🛒": 6938,
      "🛕": 6939,
      "🛡": 6940,
      "🛢": 6941,
      "🛣": 6942,
      "🛤": 6943,
      "🛥": 6944,
      "🛧": 6945,
      "🛨": 6946,
      "🛩": 6947,
      "🛫": 6948,
      "🛬": 6949,
      "🛰": 6950,
      "🛲": 6951,
      "🛳": 6952,
      "🛴": 6953,
      "🛵": 6954,
      "🛶": 6955,
      "🛷": 6956,
      "🛸": 6957,
      "🛹": 6958,
      "🛺": 6959,
      "🟠": 6960,
      "🟡": 6961,
      "🟢": 6962,
      "🟣": 6963,
      "🟤": 6964,
      "🟥": 6965,
      "🟦": 6966,
      "🟧": 6967,
      "🟨": 6968,
      "🟩": 6969,
      "🟪": 6970,
      "🟫": 6971,
      "🤍": 6972,
      "🤎": 6973,
      "🤏": 6974,
      "🤐": 6975,
      "🤒": 6976,
      "🤓": 6977,
      "🤔": 6978,
      "🤕": 6979,
      "🤖": 6980,
      "🤗": 6981,
      "🤘": 6982,
      "🤙": 6983,
      "🤚": 6984,
      "🤛": 6985,
      "🤜": 6986,
      "🤝": 6987,
      "🤞": 6988,
      "🤟": 6989,
      "🤠": 6990,
      "🤡": 6991,
      "🤢": 6992,
      "🤣": 6993,
      "🤤": 6994,
      "🤥": 6995,
      "🤦": 6996,
      "🤧": 6997,
      "🤨": 6998,
      "🤩": 6999,
      "🤪": 7000,
      "🤫": 7001,
      "🤭": 7002,
      "🤮": 7003,
      "🤯": 7004,
      "🤰": 7005,
      "🤱": 7006,
      "🤲": 7007,
      "🤳": 7008,
      "🤴": 7009,
      "🤶": 7010,
      "🤷": 7011,
      "🤸": 7012,
      "🤹": 7013,
      "🤺": 7014,
      "🤼": 7015,
      "🤽": 7016,
      "🤾": 7017,
      "🤿": 7018,
      "🥀": 7019,
      "🥁": 7020,
      "🥂": 7021,
      "🥃": 7022,
      "🥄": 7023,
      "🥅": 7024,
      "🥇": 7025,
      "🥈": 7026,
      "🥉": 7027,
      "🥊": 7028,
      "🥋": 7029,
      "🥌": 7030,
      "🥍": 7031,
      "🥎": 7032,
      "🥏": 7033,
      "🥐": 7034,
      "🥑": 7035,
      "🥒": 7036,
      "🥓": 7037,
      "🥔": 7038,
      "🥕": 7039,
      "🥖": 7040,
      "🥗": 7041,
      "🥘": 7042,
      "🥙": 7043,
      "🥚": 7044,
      "🥛": 7045,
      "🥜": 7046,
      "🥝": 7047,
      "🥞": 7048,
      "🥟": 7049,
      "🥠": 7050,
      "🥡": 7051,
      "🥢": 7052,
      "🥣": 7053,
      "🥤": 7054,
      "🥥": 7055,
      "🥦": 7056,
      "🥧": 7057,
      "🥨": 7058,
      "🥩": 7059,
      "🥪": 7060,
      "🥫": 7061,
      "🥬": 7062,
      "🥭": 7063,
      "🥮": 7064,
      "🥯": 7065,
      "🥰": 7066,
      "🥱": 7067,
      "🥳": 7068,
      "🥴": 7069,
      "🥵": 7070,
      "🥶": 7071,
      "🥺": 7072,
      "🥻": 7073,
      "🥼": 7074,
      "🥽": 7075,
      "🥾": 7076,
      "🥿": 7077,
      "🦀": 7078,
      "🦁": 7079,
      "🦂": 7080,
      "🦃": 7081,
      "🦄": 7082,
      "🦅": 7083,
      "🦆": 7084,
      "🦇": 7085,
      "🦈": 7086,
      "🦉": 7087,
      "🦊": 7088,
      "🦋": 7089,
      "🦌": 7090,
      "🦍": 7091,
      "🦎": 7092,
      "🦏": 7093,
      "🦐": 7094,
      "🦑": 7095,
      "🦒": 7096,
      "🦓": 7097,
      "🦔": 7098,
      "🦕": 7099,
      "🦖": 7100,
      "🦗": 7101,
      "🦘": 7102,
      "🦙": 7103,
      "🦚": 7104,
      "🦛": 7105,
      "🦜": 7106,
      "🦝": 7107,
      "🦞": 7108,
      "🦟": 7109,
      "🦡": 7110,
      "🦢": 7111,
      "🦥": 7112,
      "🦦": 7113,
      "🦧": 7114,
      "🦨": 7115,
      "🦩": 7116,
      "🦪": 7117,
      "🦮": 7118,
      "🦯": 7119,
      "🦰": 7120,
      "🦱": 7121,
      "🦲": 7122,
      "🦳": 7123,
      "🦴": 7124,
      "🦵": 7125,
      "🦶": 7126,
      "🦷": 7127,
      "🦸": 7128,
      "🦺": 7129,
      "🦻": 7130,
      "🦼": 7131,
      "🦽": 7132,
      "🦾": 7133,
      "🦿": 7134,
      "🧀": 7135,
      "🧁": 7136,
      "🧂": 7137,
      "🧃": 7138,
      "🧄": 7139,
      "🧅": 7140,
      "🧆": 7141,
      "🧇": 7142,
      "🧈": 7143,
      "🧉": 7144,
      "🧊": 7145,
      "🧐": 7146,
      "🧒": 7147,
      "🧓": 7148,
      "🧖": 7149,
      "🧞": 7150,
      "🧟": 7151,
      "🧠": 7152,
      "🧡": 7153,
      "🧢": 7154,
      "🧣": 7155,
      "🧤": 7156,
      "🧥": 7157,
      "🧦": 7158,
      "🧧": 7159,
      "🧨": 7160,
      "🧩": 7161,
      "🧪": 7162,
      "🧫": 7163,
      "🧬": 7164,
      "🧭": 7165,
      "🧮": 7166,
      "🧯": 7167,
      "🧰": 7168,
      "🧱": 7169,
      "🧲": 7170,
      "🧳": 7171,
      "🧴": 7172,
      "🧵": 7173,
      "🧶": 7174,
      "🧷": 7175,
      "🧸": 7176,
      "🧹": 7177,
      "🧺": 7178,
      "🧻": 7179,
      "🧼": 7180,
      "🧽": 7181,
      "🧾": 7182,
      "🧿": 7183,
      "🩰": 7184,
      "🩱": 7185,
      "🩲": 7186,
      "🩳": 7187,
      "🩸": 7188,
      "🩹": 7189,
      "🩺": 7190,
      "🪀": 7191,
      "🪁": 7192,
      "🪂": 7193,
      "🪐": 7194,
      "🪑": 7195,
      "🪒": 7196,
      "🪓": 7197,
      "🪔": 7198,
      "🪕": 7199,
      "🪡": 7200,
      "𠮶": 7201,
      "𬀩": 7202,
      "出来": 7203,
      "起来": 7204,
      "下来": 7205,
      "不住": 7206,
      "不可": 7207,
      "不得": 7208,
      "er": 7209,
      "不知": 7210,
      "时间": 7211,
      "下去": 7212,
      "过来": 7213,
      "不了": 7214,
      "分钟": 7215,
      "什么": 7216,
      "in": 7217,
      "如此": 7218,
      "出去": 7219,
      "怎么": 7220,
      "an": 7221,
      "不是": 7222,
      "不清": 7223,
      "不过": 7224,
      "进去": 7225,
      "不能": 7226,
      "不上": 7227,
      "分之": 7228,
      "不出": 7229,
      "上去": 7230,
      "之间": 7231,
      "时候": 7232,
      "不起": 7233,
      "不见": 7234,
      "不好": 7235,
      "难以": 7236,
      "无法": 7237,
      "孩子": 7238,
      "毫不": 7239,
      "过去": 7240,
      "关系": 7241,
      "不到": 7242,
      "不如": 7243,
      "红色": 7244,
      "不堪": 7245,
      "就是": 7246,
      "不及": 7247,
      "没有": 7248,
      "自己": 7249,
      "朋友": 7250,
      "会儿": 7251,
      "上来": 7252,
      "露出": 7253,
      "上下": 7254,
      "on": 7255,
      "这么": 7256,
      "生活": 7257,
      "世界": 7258,
      "以为": 7259,
      "毫无": 7260,
      "意思": 7261,
      "精神": 7262,
      "好几": 7263,
      "不同": 7264,
      "眼睛": 7265,
      "不由": 7266,
      "进来": 7267,
      "el": 7268,
      "哈哈": 7269,
      "身体": 7270,
      "美人": 7271,
      "而出": 7272,
      "令人": 7273,
      "口气": 7274,
      "白色": 7275,
      "不动": 7276,
      "肚子": 7277,
      "不着": 7278,
      "意识": 7279,
      "的话": 7280,
      "点点": 7281,
      "不敢": 7282,
      "这样": 7283,
      "同学": 7284,
      "想到": 7285,
      "en": 7286,
      "电话": 7287,
      "不要": 7288,
      "男人": 7289,
      "天下": 7290,
      "衣服": 7291,
      "之下": 7292,
      "不会": 7293,
      "不断": 7294,
      "部分": 7295,
      "可能": 7296,
      "男女": 7297,
      "无所": 7298,
      "发出": 7299,
      "方面": 7300,
      "全身": 7301,
      "轻轻": 7302,
      "年轻": 7303,
      "不开": 7304,
      "现在": 7305,
      "学生": 7306,
      "门口": 7307,
      "工作": 7308,
      "有点": 7309,
      "兴奋": 7310,
      "肉棒": 7311,
      "清楚": 7312,
      "不安": 7313,
      "所以": 7314,
      "回来": 7315,
      "而来": 7316,
      "回事": 7317,
      "女人": 7318,
      "完全": 7319,
      "多年": 7320,
      "越来": 7321,
      "乎乎": 7322,
      "因为": 7323,
      "不多": 7324,
      "女孩": 7325,
      "回去": 7326,
      "左右": 7327,
      "自然": 7328,
      "ar": 7329,
      "不去": 7330,
      "屁股": 7331,
      "不定": 7332,
      "人心": 7333,
      "电视": 7334,
      "非常": 7335,
      "ch": 7336,
      "姐妹": 7337,
      "无可": 7338,
      "深处": 7339,
      "as": 7340,
      "办公": 7341,
      "公司": 7342,
      "控制": 7343,
      "不在": 7344,
      "呼吸": 7345,
      "容易": 7346,
      "知道": 7347,
      "舒服": 7348,
      "准备": 7349,
      "恢复": 7350,
      "越来越": 7351,
      "之中": 7352,
      "手指": 7353,
      "不成": 7354,
      "不足": 7355,
      "ou": 7356,
      "不管": 7357,
      "发现": 7358,
      "往下": 7359,
      "穴里": 7360,
      "游戏": 7361,
      "运动": 7362,
      "如何": 7363,
      "感觉": 7364,
      "无力": 7365,
      "至于": 7366,
      "房间": 7367,
      "说话": 7368,
      "不太": 7369,
      "多岁": 7370,
      "不下": 7371,
      "距离": 7372,
      "老师": 7373,
      "小心": 7374,
      "机会": 7375,
      "着头": 7376,
      "身材": 7377,
      "高兴": 7378,
      "儿子": 7379,
      "已经": 7380,
      "东西": 7381,
      "心理": 7382,
      "心里": 7383,
      "无人": 7384,
      "美女": 7385,
      "利亚": 7386,
      "浑身": 7387,
      "大家": 7388,
      "能力": 7389,
      "ter": 7390,
      "所有": 7391,
      "服务": 7392,
      "瞬间": 7393,
      "it": 7394,
      "下子": 7395,
      "主人": 7396,
      "战斗": 7397,
      "真的": 7398,
      "ri": 7399,
      "兴趣": 7400,
      "得意": 7401,
      "漂亮": 7402,
      "可见": 7403,
      "敏感": 7404,
      "没人": 7405,
      "注意": 7406,
      "舌头": 7407,
      "叫声": 7408,
      "大半": 7409,
      "不已": 7410,
      "中年": 7411,
      "玻璃": 7412,
      "下头": 7413,
      "办法": 7414,
      "看着": 7415,
      "着脸": 7416,
      "需要": 7417,
      "慢慢": 7418,
      "这个": 7419,
      "不绝": 7420,
      "仔细": 7421,
      "以后": 7422,
      "无数": 7423,
      "来说": 7424,
      "看得": 7425,
      "不大": 7426,
      "只是": 7427,
      "大大": 7428,
      "小小": 7429,
      "无论": 7430,
      "紧紧": 7431,
      "刺激": 7432,
      "悄悄": 7433,
      "没事": 7434,
      "出现": 7435,
      "妈妈": 7436,
      "任何": 7437,
      "可以": 7438,
      "大笑": 7439,
      "根本": 7440,
      "不停": 7441,
      "不相": 7442,
      "几个": 7443,
      "开始": 7444,
      "我们": 7445,
      "接着": 7446,
      "看到": 7447,
      "羞耻": 7448,
      "问题": 7449,
      "犹豫": 7450,
      "高高": 7451,
      "ing": 7452,
      "休息": 7453,
      "作用": 7454,
      "淋漓": 7455,
      "丝袜": 7456,
      "之后": 7457,
      "实实": 7458,
      "巴巴": 7459,
      "眼前": 7460,
      "继续": 7461,
      "其他": 7462,
      "呻吟": 7463,
      "喜欢": 7464,
      "当然": 7465,
      "如果": 7466,
      "少女": 7467,
      "安全": 7468,
      "反应": 7469,
      "放在": 7470,
      "生生": 7471,
      "还是": 7472,
      "声音": 7473,
      "溜溜": 7474,
      "老板": 7475,
      "路上": 7476,
      "闭上": 7477,
      "动作": 7478,
      "坐在": 7479,
      "感到": 7480,
      "摇头": 7481,
      "晚上": 7482,
      "样子": 7483,
      "不用": 7484,
      "内心": 7485,
      "得到": 7486,
      "am": 7487,
      "动人": 7488,
      "口水": 7489,
      "同时": 7490,
      "声道": 7491,
      "淡淡": 7492,
      "里面": 7493,
      "两个": 7494,
      "之地": 7495,
      "微微": 7496,
      "星期": 7497,
      "经验": 7498,
      "今天": 7499,
      "你们": 7500,
      "全力": 7501,
      "眉头": 7502,
      "辈子": 7503,
      "两人": 7504,
      "发生": 7505,
      "处女": 7506,
      "太多": 7507,
      "头上": 7508,
      "姐姐": 7509,
      "此时": 7510,
      "不错": 7511,
      "几天": 7512,
      "嘿嘿": 7513,
      "有所": 7514,
      "直接": 7515,
      "人家": 7516,
      "妇人": 7517,
      "突然": 7518,
      "th": 7519,
      "头来": 7520,
      "点儿": 7521,
      "看不": 7522,
      "蓝色": 7523,
      "阴道": 7524,
      "cm": 7525,
      "to": 7526,
      "不舍": 7527,
      "句话": 7528,
      "有力": 7529,
      "生命": 7530,
      "神秘": 7531,
      "秒钟": 7532,
      "糊糊": 7533,
      "重重": 7534,
      "他们": 7535,
      "咖啡": 7536,
      "射出": 7537,
      "心中": 7538,
      "忍受": 7539,
      "神经": 7540,
      "聪明": 7541,
      "不然": 7542,
      "男子": 7543,
      "不顾": 7544,
      "彼此": 7545,
      "有些": 7546,
      "用力": 7547,
      "男孩": 7548,
      "那么": 7549,
      "li": 7550,
      "兄弟": 7551,
      "夫人": 7552,
      "家伙": 7553,
      "电脑": 7554,
      "说道": 7555,
      "闪闪": 7556,
      "黄色": 7557,
      "主义": 7558,
      "以来": 7559,
      "指挥": 7560,
      "然后": 7561,
      "身上": 7562,
      "上门": 7563,
      "不自": 7564,
      "但是": 7565,
      "公主": 7566,
      "几次": 7567,
      "子里": 7568,
      "斯特": 7569,
      "普通": 7570,
      "正常": 7571,
      "相信": 7572,
      "le": 7573,
      "夫妻": 7574,
      "好久": 7575,
      "娘们": 7576,
      "玩弄": 7577,
      "这些": 7578,
      "麻烦": 7579,
      "人员": 7580,
      "可怜": 7581,
      "小子": 7582,
      "很多": 7583,
      "快感": 7584,
      "消息": 7585,
      "缓缓": 7586,
      "虽然": 7587,
      "鼓鼓": 7588,
      "主动": 7589,
      "卫生": 7590,
      "多久": 7591,
      "底下": 7592,
      "抓住": 7593,
      "最高": 7594,
      "满意": 7595,
      "好了": 7596,
      "好好": 7597,
      "按摩": 7598,
      "无声": 7599,
      "现出": 7600,
      "部位": 7601,
      "魔法": 7602,
      "再次": 7603,
      "目光": 7604,
      "脸色": 7605,
      "起伏": 7606,
      "呵呵": 7607,
      "女儿": 7608,
      "奶奶": 7609,
      "洋洋": 7610,
      "点头": 7611,
      "痛苦": 7612,
      "细细": 7613,
      "而入": 7614,
      "解决": 7615,
      "驾驶": 7616,
      "co": 7617,
      "ss": 7618,
      "变成": 7619,
      "打开": 7620,
      "护士": 7621,
      "放心": 7622,
      "死死": 7623,
      "眼里": 7624,
      "答应": 7625,
      "表情": 7626,
      "之外": 7627,
      "伸出": 7628,
      "到底": 7629,
      "口中": 7630,
      "如今": 7631,
      "少年": 7632,
      "深深": 7633,
      "狠狠": 7634,
      "真是": 7635,
      "睁开": 7636,
      "难道": 7637,
      "al": 7638,
      "习惯": 7639,
      "几年": 7640,
      "只能": 7641,
      "可是": 7642,
      "奇怪": 7643,
      "润滑": 7644,
      "精液": 7645,
      "那个": 7646,
      "内衣": 7647,
      "呼呼": 7648,
      "回家": 7649,
      "多多": 7650,
      "大腿": 7651,
      "开心": 7652,
      "很久": 7653,
      "手机": 7654,
      "无比": 7655,
      "老头": 7656,
      "不仅": 7657,
      "不怕": 7658,
      "不想": 7659,
      "不觉": 7660,
      "亲眼": 7661,
      "小腿": 7662,
      "往上": 7663,
      "然而": 7664,
      "看来": 7665,
      "跟着": 7666,
      "进入": 7667,
      "道理": 7668,
      "不少": 7669,
      "不来": 7670,
      "嘻嘻": 7671,
      "小穴": 7672,
      "意料": 7673,
      "承受": 7674,
      "研究": 7675,
      "觉得": 7676,
      "再也": 7677,
      "双手": 7678,
      "哥哥": 7679,
      "家人": 7680,
      "干净": 7681,
      "桌上": 7682,
      "此刻": 7683,
      "还有": 7684,
      "这种": 7685,
      "主意": 7686,
      "之力": 7687,
      "大学": 7688,
      "实话": 7689,
      "抬起": 7690,
      "笑容": 7691,
      "训练": 7692,
      "重要": 7693,
      "面对": 7694,
      "面目": 7695,
      "鸡巴": 7696,
      "ck": 7697,
      "两只": 7698,
      "之前": 7699,
      "人之": 7700,
      "人物": 7701,
      "简单": 7702,
      "行动": 7703,
      "身子": 7704,
      "la": 7705,
      "不为": 7706,
      "不算": 7707,
      "为止": 7708,
      "原来": 7709,
      "嘴里": 7710,
      "媳妇": 7711,
      "怎样": 7712,
      "紧贴": 7713,
      "这里": 7714,
      "阵阵": 7715,
      "不禁": 7716,
      "不行": 7717,
      "丫头": 7718,
      "全部": 7719,
      "剧烈": 7720,
      "她们": 7721,
      "正经": 7722,
      "比较": 7723,
      "满满": 7724,
      "事实": 7725,
      "半身": 7726,
      "实际": 7727,
      "快乐": 7728,
      "时机": 7729,
      "洁白": 7730,
      "淋淋": 7731,
      "莉亚": 7732,
      "面前": 7733,
      "不时": 7734,
      "于是": 7735,
      "人间": 7736,
      "其实": 7737,
      "女子": 7738,
      "家里": 7739,
      "恍惚": 7740,
      "情况": 7741,
      "整个": 7742,
      "昨天": 7743,
      "杀人": 7744,
      "玲珑": 7745,
      "结合": 7746,
      "事情": 7747,
      "以前": 7748,
      "偷偷": 7749,
      "刹那": 7750,
      "危险": 7751,
      "咕噜": 7752,
      "强烈": 7753,
      "彻底": 7754,
      "感受": 7755,
      "而且": 7756,
      "自我": 7757,
      "认真": 7758,
      "都是": 7759,
      "ie": 7760,
      "不说": 7761,
      "做爱": 7762,
      "医生": 7763,
      "小时": 7764,
      "悠悠": 7765,
      "算了": 7766,
      "紫色": 7767,
      "见面": 7768,
      "速度": 7769,
      "阵子": 7770,
      "颤抖": 7771,
      "厘米": 7772,
      "吸引": 7773,
      "哗啦": 7774,
      "微笑": 7775,
      "撞击": 7776,
      "满足": 7777,
      "电影": 7778,
      "结束": 7779,
      "里斯": 7780,
      "dy": 7781,
      "不忍": 7782,
      "丝丝": 7783,
      "似乎": 7784,
      "前后": 7785,
      "寻常": 7786,
      "房子": 7787,
      "手掌": 7788,
      "淫水": 7789,
      "生日": 7790,
      "生理": 7791,
      "糊涂": 7792,
      "默默": 7793,
      "从未": 7794,
      "内裤": 7795,
      "厕所": 7796,
      "听得": 7797,
      "或者": 7798,
      "握住": 7799,
      "故意": 7800,
      "沉沉": 7801,
      "热闹": 7802,
      "紧张": 7803,
      "而言": 7804,
      "色情": 7805,
      "言不": 7806,
      "转过": 7807,
      "那样": 7808,
      "骑士": 7809,
      "st": 7810,
      "个子": 7811,
      "冷冷": 7812,
      "失去": 7813,
      "把手": 7814,
      "收拾": 7815,
      "没想到": 7816,
      "状态": 7817,
      "生气": 7818,
      "空中": 7819,
      "裤子": 7820,
      "记忆": 7821,
      "ff": 7822,
      "不明": 7823,
      "冲击": 7824,
      "手下": 7825,
      "招呼": 7826,
      "插入": 7827,
      "有过": 7828,
      "母亲": 7829,
      "洗澡": 7830,
      "深入": 7831,
      "玫瑰": 7832,
      "脚步": 7833,
      "脸上": 7834,
      "赤裸": 7835,
      "隐约": 7836,
      "ra": 7837,
      "不甘": 7838,
      "喘息": 7839,
      "学习": 7840,
      "想要": 7841,
      "既然": 7842,
      "日子": 7843,
      "晃晃": 7844,
      "更是": 7845,
      "最后": 7846,
      "白白": 7847,
      "目的": 7848,
      "鼻子": 7849,
      "两天": 7850,
      "呜呜": 7851,
      "女警": 7852,
      "完美": 7853,
      "意外": 7854,
      "拉着": 7855,
      "满面": 7856,
      "留情": 7857,
      "终于": 7858,
      "美丽": 7859,
      "肉体": 7860,
      "了起来": 7861,
      "力量": 7862,
      "包裹": 7863,
      "姑娘": 7864,
      "无穷": 7865,
      "相当": 7866,
      "看见": 7867,
      "结婚": 7868,
      "见过": 7869,
      "不胜": 7870,
      "之处": 7871,
      "大口": 7872,
      "察觉": 7873,
      "应该": 7874,
      "形容": 7875,
      "暴露": 7876,
      "模糊": 7877,
      "沙发": 7878,
      "滴滴": 7879,
      "爆发": 7880,
      "片刻": 7881,
      "相对": 7882,
      "社会": 7883,
      "经理": 7884,
      "聊天": 7885,
      "长长": 7886,
      "下手": 7887,
      "体育": 7888,
      "加快": 7889,
      "只有": 7890,
      "听到": 7891,
      "大多": 7892,
      "好像": 7893,
      "幅度": 7894,
      "年纪": 7895,
      "往后": 7896,
      "意乱": 7897,
      "更加": 7898,
      "温柔": 7899,
      "然大": 7900,
      "肯定": 7901,
      "静下来": 7902,
      "飘飘": 7903,
      "不够": 7904,
      "个月": 7905,
      "乳房": 7906,
      "低头": 7907,
      "几分钟": 7908,
      "女郎": 7909,
      "屁眼": 7910,
      "床上": 7911,
      "想象": 7912,
      "极了": 7913,
      "脖子": 7914,
      "花花": 7915,
      "远远": 7916,
      "阿尔": 7917,
      "随着": 7918,
      "风情": 7919,
      "不休": 7920,
      "充满": 7921,
      "刚才": 7922,
      "双腿": 7923,
      "地方": 7924,
      "成熟": 7925,
      "接受": 7926,
      "检查": 7927,
      "玩笑": 7928,
      "直到": 7929,
      "老爷": 7930,
      "脑海": 7931,
      "脚趾": 7932,
      "规则": 7933,
      "不久": 7934,
      "从来": 7935,
      "勇气": 7936,
      "咬牙": 7937,
      "哪里": 7938,
      "大叫": 7939,
      "好多": 7940,
      "客气": 7941,
      "心动": 7942,
      "感谢": 7943,
      "手术": 7944,
      "攻击": 7945,
      "楼梯": 7946,
      "甚至": 7947,
      "穿着": 7948,
      "竟然": 7949,
      "答答": 7950,
      "老婆": 7951,
      "黑色": 7952,
      "龟头": 7953,
      "为了": 7954,
      "主角": 7955,
      "位置": 7956,
      "保持": 7957,
      "分泌": 7958,
      "意味": 7959,
      "有余": 7960,
      "激动": 7961,
      "着急": 7962,
      "解释": 7963,
      "那些": 7964,
      "下身": 7965,
      "两条": 7966,
      "低下头": 7967,
      "克斯": 7968,
      "各种": 7969,
      "外面": 7970,
      "多少": 7971,
      "大开": 7972,
      "太过": 7973,
      "头脑": 7974,
      "愿意": 7975,
      "来来": 7976,
      "柔软": 7977,
      "狐狸": 7978,
      "英雄": 7979,
      "负责": 7980,
      "静静": 7981,
      "黑丝": 7982,
      "丈夫": 7983,
      "两腿": 7984,
      "像是": 7985,
      "关键": 7986,
      "其中": 7987,
      "可爱": 7988,
      "嘴巴": 7989,
      "回到": 7990,
      "奴隶": 7991,
      "忍不住": 7992,
      "情人": 7993,
      "放开": 7994,
      "整齐": 7995,
      "本来": 7996,
      "汽车": 7997,
      "沐浴": 7998,
      "配合": 7999,
      "怎么样": 8000,
      "不通": 8001,
      "冒险": 8002,
      "冲动": 8003,
      "原本": 8004,
      "希望": 8005,
      "异常": 8006,
      "性感": 8007,
      "抽插": 8008,
      "无意": 8009,
      "显示": 8010,
      "条件": 8011,
      "离开": 8012,
      "苍白": 8013,
      "蜜穴": 8014,
      "不知道": 8015,
      "上班": 8016,
      "不必": 8017,
      "公子": 8018,
      "几下": 8019,
      "几乎": 8020,
      "刚刚": 8021,
      "地下": 8022,
      "大声": 8023,
      "往前": 8024,
      "挣扎": 8025,
      "来得": 8026,
      "洗手": 8027,
      "火热": 8028,
      "真实": 8029,
      "肌肤": 8030,
      "脑袋": 8031,
      "脸红": 8032,
      "观察": 8033,
      "透明": 8034,
      "避免": 8035,
      "酒店": 8036,
      "队长": 8037,
      "ry": 8038,
      "不吃": 8039,
      "为什么": 8040,
      "人民": 8041,
      "变得": 8042,
      "回头": 8043,
      "回答": 8044,
      "大力": 8045,
      "对方": 8046,
      "干什么": 8047,
      "心惊": 8048,
      "抵抗": 8049,
      "摩擦": 8050,
      "支持": 8051,
      "时刻": 8052,
      "果然": 8053,
      "欲火": 8054,
      "沉默": 8055,
      "流氓": 8056,
      "淫荡": 8057,
      "猛烈": 8058,
      "睡觉": 8059,
      "美腿": 8060,
      "见到": 8061,
      "转眼": 8062,
      "那时": 8063,
      "随便": 8064,
      "飞机": 8065,
      "伸手": 8066,
      "即使": 8067,
      "喃喃": 8068,
      "地上": 8069,
      "好奇": 8070,
      "很快": 8071,
      "恭敬": 8072,
      "成年": 8073,
      "无情": 8074,
      "段时间": 8075,
      "满脸": 8076,
      "甜甜": 8077,
      "的是": 8078,
      "盖住": 8079,
      "绵绵": 8080,
      "而已": 8081,
      "肌肉": 8082,
      "问道": 8083,
      "面上": 8084,
      "不像": 8085,
      "保护": 8086,
      "先生": 8087,
      "出头": 8088,
      "动手": 8089,
      "半夜": 8090,
      "器官": 8091,
      "女友": 8092,
      "年级": 8093,
      "恐惧": 8094,
      "成功": 8095,
      "摇摆": 8096,
      "欲滴": 8097,
      "气喘": 8098,
      "浑然": 8099,
      "硕大": 8100,
      "紧身": 8101,
      "长时间": 8102,
      "顺利": 8103,
      "书记": 8104,
      "享受": 8105,
      "只要": 8106,
      "妹妹": 8107,
      "娇艳": 8108,
      "小嘴": 8109,
      "居然": 8110,
      "想像": 8111,
      "想想": 8112,
      "想起": 8113,
      "抬头": 8114,
      "故事": 8115,
      "有人": 8116,
      "模样": 8117,
      "正在": 8118,
      "流水": 8119,
      "特别": 8120,
      "疼痛": 8121,
      "眼泪": 8122,
      "管理": 8123,
      "若无": 8124,
      "这时": 8125,
      "这是": 8126,
      "进出": 8127,
      "那种": 8128,
      "不懂": 8129,
      "仿佛": 8130,
      "兮兮": 8131,
      "劲儿": 8132,
      "原因": 8133,
      "摄影": 8134,
      "欲望": 8135,
      "滋味": 8136,
      "绝色": 8137,
      "莫名": 8138,
      "认为": 8139,
      "诱惑": 8140,
      "身份": 8141,
      "远处": 8142,
      "传来": 8143,
      "何况": 8144,
      "光明": 8145,
      "刑警": 8146,
      "告诉": 8147,
      "垃圾": 8148,
      "基本": 8149,
      "复杂": 8150,
      "射精": 8151,
      "救命": 8152,
      "是不是": 8153,
      "有钱": 8154,
      "活动": 8155,
      "现实": 8156,
      "精力": 8157,
      "自语": 8158,
      "莉莉": 8159,
      "规矩": 8160,
      "身边": 8161,
      "那里": 8162,
      "金属": 8163,
      "镜子": 8164,
      "青春": 8165,
      "中间": 8166,
      "乳头": 8167,
      "他妈": 8168,
      "修长": 8169,
      "决心": 8170,
      "口处": 8171,
      "右手": 8172,
      "心神": 8173,
      "扭过": 8174,
      "晶莹": 8175,
      "每天": 8176,
      "毕竟": 8177,
      "清醒": 8178,
      "的确": 8179,
      "看看": 8180,
      "眼神": 8181,
      "能够": 8182,
      "脸蛋": 8183,
      "话音": 8184,
      "雪白": 8185,
      "上面": 8186,
      "不愧": 8187,
      "不让": 8188,
      "匆匆": 8189,
      "同意": 8190,
      "含糊": 8191,
      "太阳": 8192,
      "学院": 8193,
      "实在": 8194,
      "对着": 8195,
      "心思": 8196,
      "忍耐": 8197,
      "意义": 8198,
      "战士": 8199,
      "拇指": 8200,
      "放过": 8201,
      "无耻": 8202,
      "立刻": 8203,
      "自主": 8204,
      "表示": 8205,
      "认识": 8206,
      "阴茎": 8207,
      "马上": 8208,
      "ab": 8209,
      "不解": 8210,
      "吁吁": 8211,
      "呀呀": 8212,
      "哦哦": 8213,
      "多个": 8214,
      "大白": 8215,
      "天生": 8216,
      "娃娃": 8217,
      "娱乐": 8218,
      "尽管": 8219,
      "急忙": 8220,
      "情愿": 8221,
      "挺立": 8222,
      "明明": 8223,
      "来到": 8224,
      "正是": 8225,
      "玩意": 8226,
      "紧绷": 8227,
      "脸皮": 8228,
      "说完": 8229,
      "这次": 8230,
      "进行": 8231,
      "顿时": 8232,
      "下面": 8233,
      "两下": 8234,
      "个个": 8235,
      "从头": 8236,
      "使用": 8237,
      "公共": 8238,
      "半天": 8239,
      "声响": 8240,
      "娇嫩": 8241,
      "就算": 8242,
      "才能": 8243,
      "拳头": 8244,
      "方向": 8245,
      "汪汪": 8246,
      "清晰": 8247,
      "石头": 8248,
      "要是": 8249,
      "许多": 8250,
      "说得": 8251,
      "选择": 8252,
      "lo": 8253,
      "下体": 8254,
      "不理": 8255,
      "不语": 8256,
      "互相": 8257,
      "亲密": 8258,
      "依旧": 8259,
      "兴致": 8260,
      "再说": 8261,
      "决定": 8262,
      "出门": 8263,
      "却是": 8264,
      "后面": 8265,
      "含着": 8266,
      "哼哼": 8267,
      "女性": 8268,
      "存在": 8269,
      "对于": 8270,
      "对面": 8271,
      "小鬼": 8272,
      "影响": 8273,
      "愉快": 8274,
      "手上": 8275,
      "抚摸": 8276,
      "挑逗": 8277,
      "接著": 8278,
      "未婚": 8279,
      "永远": 8280,
      "浪费": 8281,
      "生意": 8282,
      "笑脸": 8283,
      "美元": 8284,
      "腾腾": 8285,
      "般的": 8286,
      "观众": 8287,
      "身后": 8288,
      "陌生": 8289,
      "难得": 8290,
      "不清楚": 8291,
      "不平": 8292,
      "介意": 8293,
      "体内": 8294,
      "反抗": 8295,
      "受不了": 8296,
      "周围": 8297,
      "回过": 8298,
      "大人": 8299,
      "妻子": 8300,
      "嫣然": 8301,
      "实验": 8302,
      "小孩": 8303,
      "心情": 8304,
      "忽然": 8305,
      "情趣": 8306,
      "我要": 8307,
      "收缩": 8308,
      "毕业": 8309,
      "难受": 8310,
      "魔鬼": 8311,
      "不止": 8312,
      "之心": 8313,
      "亲自": 8314,
      "你好": 8315,
      "几岁": 8316,
      "即便": 8317,
      "只见": 8318,
      "嘴唇": 8319,
      "大片": 8320,
      "天地": 8321,
      "娇吟": 8322,
      "安安": 8323,
      "层层": 8324,
      "左手": 8325,
      "床头": 8326,
      "抖动": 8327,
      "摄像": 8328,
      "校长": 8329,
      "欢迎": 8330,
      "泛滥": 8331,
      "爸爸": 8332,
      "牵着": 8333,
      "理由": 8334,
      "短裙": 8335,
      "秘书": 8336,
      "而是": 8337,
      "裸体": 8338,
      "要求": 8339,
      "说来": 8340,
      "还要": 8341,
      "除了": 8342,
      "仅仅": 8343,
      "克里斯": 8344,
      "听说": 8345,
      "女生": 8346,
      "对不起": 8347,
      "局长": 8348,
      "幸福": 8349,
      "开着": 8350,
      "心事": 8351,
      "思考": 8352,
      "拉拉": 8353,
      "文化": 8354,
      "旁边": 8355,
      "某种": 8356,
      "欲仙": 8357,
      "父亲": 8358,
      "考虑": 8359,
      "自拔": 8360,
      "落落": 8361,
      "记得": 8362,
      "起身": 8363,
      "迷迷": 8364,
      "预料": 8365,
      "麻麻": 8366,
      "不得已": 8367,
      "me": 8368,
      "ta": 8369,
      "不入": 8370,
      "中心": 8371,
      "主任": 8372,
      "人类": 8373,
      "介绍": 8374,
      "似的": 8375,
      "体力": 8376,
      "别墅": 8377,
      "力气": 8378,
      "听话": 8379,
      "坚硬": 8380,
      "大发": 8381,
      "小说": 8382,
      "引人": 8383,
      "德里": 8384,
      "恐怖": 8385,
      "想不到": 8386,
      "打扮": 8387,
      "抽搐": 8388,
      "方式": 8389,
      "无奈": 8390,
      "无遗": 8391,
      "显得": 8392,
      "有事": 8393,
      "朝天": 8394,
      "电梯": 8395,
      "直直": 8396,
      "老实": 8397,
      "da": 8398,
      "不经": 8399,
      "丰满": 8400,
      "众人": 8401,
      "保险": 8402,
      "分明": 8403,
      "别人": 8404,
      "声声": 8405,
      "大量": 8406,
      "就要": 8407,
      "屏幕": 8408,
      "恶心": 8409,
      "感兴趣": 8410,
      "扭动": 8411,
      "有心": 8412,
      "汹涌": 8413,
      "渐渐": 8414,
      "猛地": 8415,
      "短短": 8416,
      "空气": 8417,
      "空白": 8418,
      "胳膊": 8419,
      "胸前": 8420,
      "不容": 8421,
      "从小": 8422,
      "件事": 8423,
      "全然": 8424,
      "卧室": 8425,
      "压抑": 8426,
      "压迫": 8427,
      "变化": 8428,
      "合适": 8429,
      "命令": 8430,
      "困难": 8431,
      "在意": 8432,
      "外人": 8433,
      "好处": 8434,
      "如同": 8435,
      "如梦": 8436,
      "妩媚": 8437,
      "寻找": 8438,
      "尾巴": 8439,
      "巨大": 8440,
      "我来": 8441,
      "打着": 8442,
      "拒绝": 8443,
      "挥手": 8444,
      "政府": 8445,
      "散发": 8446,
      "新鲜": 8447,
      "方便": 8448,
      "无事": 8449,
      "早上": 8450,
      "期待": 8451,
      "玉手": 8452,
      "疲力": 8453,
      "疲惫": 8454,
      "痒痒": 8455,
      "血肉": 8456,
      "行为": 8457,
      "西亚": 8458,
      "触手": 8459,
      "部门": 8460,
      "醒来": 8461,
      "领导": 8462,
      "高大": 8463,
      "ia": 8464,
      "东方": 8465,
      "中国": 8466,
      "之意": 8467,
      "停止": 8468,
      "危机": 8469,
      "反射": 8470,
      "反而": 8471,
      "同事": 8472,
      "后来": 8473,
      "娇小": 8474,
      "宿舍": 8475,
      "小伙": 8476,
      "就行": 8477,
      "属于": 8478,
      "怀里": 8479,
      "成为": 8480,
      "拥有": 8481,
      "摇摇": 8482,
      "早就": 8483,
      "晚饭": 8484,
      "桌子": 8485,
      "武器": 8486,
      "母女": 8487,
      "爆炸": 8488,
      "神情": 8489,
      "程度": 8490,
      "笔记": 8491,
      "经历": 8492,
      "美艳": 8493,
      "说不出": 8494,
      "赶紧": 8495,
      "达到": 8496,
      "阳具": 8497,
      "饱满": 8498,
      "il": 8499,
      "不再": 8500,
      "低声": 8501,
      "光滑": 8502,
      "冲冲": 8503,
      "分开": 8504,
      "加上": 8505,
      "哆嗦": 8506,
      "喊声": 8507,
      "大哥": 8508,
      "奶子": 8509,
      "姿势": 8510,
      "完成": 8511,
      "宫颈": 8512,
      "手中": 8513,
      "春风": 8514,
      "疯狂": 8515,
      "痛快": 8516,
      "精灵": 8517,
      "绝对": 8518,
      "美国": 8519,
      "脑子": 8520,
      "艺术": 8521,
      "褐色": 8522,
      "角落": 8523,
      "设计": 8524,
      "避孕": 8525,
      "面子": 8526,
      "就是说": 8527,
      "av": 8528,
      "不作": 8529,
      "不合": 8530,
      "不屑": 8531,
      "不离": 8532,
      "不论": 8533,
      "人生": 8534,
      "作为": 8535,
      "动弹": 8536,
      "化妆": 8537,
      "压力": 8538,
      "吊带": 8539,
      "女孩子": 8540,
      "娇躯": 8541,
      "害羞": 8542,
      "小声": 8543,
      "尼亚": 8544,
      "幻想": 8545,
      "强大": 8546,
      "心上": 8547,
      "心灵": 8548,
      "忘记": 8549,
      "所在": 8550,
      "挺动": 8551,
      "无处": 8552,
      "明显": 8553,
      "条条": 8554,
      "欧阳": 8555,
      "热情": 8556,
      "生殖": 8557,
      "真心": 8558,
      "组织": 8559,
      "缠绕": 8560,
      "美妙": 8561,
      "羡慕": 8562,
      "袭击": 8563,
      "角色": 8564,
      "说出": 8565,
      "轻声": 8566,
      "连续": 8567,
      "阶段": 8568,
      "鸡鸡": 8569,
      "黑白": 8570,
      "ev": 8571,
      "ir": 8572,
      "包围": 8573,
      "厉害": 8574,
      "台上": 8575,
      "叹息": 8576,
      "味道": 8577,
      "啪啪": 8578,
      "安慰": 8579,
      "帮忙": 8580,
      "强奸": 8581,
      "当家": 8582,
      "想着": 8583,
      "担心": 8584,
      "早已": 8585,
      "晃动": 8586,
      "桃花": 8587,
      "死人": 8588,
      "沉醉": 8589,
      "熟练": 8590,
      "猛然": 8591,
      "生死": 8592,
      "由于": 8593,
      "确实": 8594,
      "窒息": 8595,
      "篮球": 8596,
      "胡说": 8597,
      "衣衫": 8598,
      "见识": 8599,
      "计算": 8600,
      "试试": 8601,
      "话语": 8602,
      "诱人": 8603,
      "这般": 8604,
      "逐渐": 8605,
      "闪烁": 8606,
      "阴唇": 8607,
      "马眼": 8608,
      "der": 8609,
      "不死": 8610,
      "不起来": 8611,
      "与其": 8612,
      "中央": 8613,
      "乖乖": 8614,
      "以及": 8615,
      "伤害": 8616,
      "佳人": 8617,
      "依然": 8618,
      "便宜": 8619,
      "动静": 8620,
      "即逝": 8621,
      "发挥": 8622,
      "吐出": 8623,
      "哀求": 8624,
      "嗓子": 8625,
      "回忆": 8626,
      "坏蛋": 8627,
      "城市": 8628,
      "失败": 8629,
      "如其": 8630,
      "嫩肉": 8631,
      "家庭": 8632,
      "小巧": 8633,
      "小腹": 8634,
      "弟子": 8635,
      "彤彤": 8636,
      "把握": 8637,
      "抱住": 8638,
      "整天": 8639,
      "无瑕": 8640,
      "是否": 8641,
      "滋滋": 8642,
      "点半": 8643,
      "看起来": 8644,
      "经常": 8645,
      "绿色": 8646,
      "胸部": 8647,
      "膨胀": 8648,
      "臭味": 8649,
      "衣物": 8650,
      "警察": 8651,
      "记录": 8652,
      "释放": 8653,
      "闪电": 8654,
      "阻止": 8655,
      "随时": 8656,
      "下午": 8657,
      "不但": 8658,
      "不尽": 8659,
      "伤心": 8660,
      "便是": 8661,
      "努力": 8662,
      "双眼": 8663,
      "只好": 8664,
      "召唤": 8665,
      "地面": 8666,
      "场所": 8667,
      "坚持": 8668,
      "妮娅": 8669,
      "客厅": 8670,
      "少数": 8671,
      "尽力": 8672,
      "当初": 8673,
      "情绪": 8674,
      "慌张": 8675,
      "我会": 8676,
      "手段": 8677,
      "手脚": 8678,
      "旅馆": 8679,
      "最大": 8680,
      "有着": 8681,
      "本事": 8682,
      "沉迷": 8683,
      "津津": 8684,
      "浅浅": 8685,
      "灵魂": 8686,
      "狼狈": 8687,
      "留下": 8688,
      "目不": 8689,
      "目前": 8690,
      "董事": 8691,
      "讨厌": 8692,
      "趴在": 8693,
      "身为": 8694,
      "过程": 8695,
      "逍遥": 8696,
      "随后": 8697,
      "隐隐": 8698,
      "顺着": 8699,
      "不服": 8700,
      "乳上": 8701,
      "佣兵": 8702,
      "公里": 8703,
      "勉强": 8704,
      "号码": 8705,
      "合作": 8706,
      "同样": 8707,
      "咱们": 8708,
      "大惊": 8709,
      "大部分": 8710,
      "大肉棒": 8711,
      "好看": 8712,
      "尿道": 8713,
      "带来": 8714,
      "开口": 8715,
      "感情": 8716,
      "所未": 8717,
      "找到": 8718,
      "投入": 8719,
      "拉开": 8720,
      "旁观": 8721,
      "旅行": 8722,
      "无言": 8723,
      "樱桃": 8724,
      "次次": 8725,
      "欢喜": 8726,
      "液体": 8727,
      "滚滚": 8728,
      "男生": 8729,
      "痛哭": 8730,
      "眨眼": 8731,
      "知识": 8732,
      "背后": 8733,
      "脚下": 8734,
      "腹部": 8735,
      "自慰": 8736,
      "葫芦": 8737,
      "计划": 8738,
      "说是": 8739,
      "Ch": 8740,
      "ce": 8741,
      "ser": 8742,
      "不许": 8743,
      "人事": 8744,
      "凝视": 8745,
      "剔透": 8746,
      "嘟嘟": 8747,
      "因此": 8748,
      "大小": 8749,
      "大概": 8750,
      "天天": 8751,
      "头发": 8752,
      "守护": 8753,
      "将军": 8754,
      "巍巍": 8755,
      "开门": 8756,
      "弥漫": 8757,
      "征服": 8758,
      "心跳": 8759,
      "意志": 8760,
      "感激": 8761,
      "持续": 8762,
      "日本": 8763,
      "望去": 8764,
      "桃源": 8765,
      "欢呼": 8766,
      "每次": 8767,
      "没什么": 8768,
      "火辣": 8769,
      "牢牢": 8770,
      "狂风": 8771,
      "玩具": 8772,
      "痕迹": 8773,
      "盈盈": 8774,
      "真正": 8775,
      "简直": 8776,
      "纷纷": 8777,
      "经过": 8778,
      "结果": 8779,
      "继承": 8780,
      "绿帽": 8781,
      "臣服": 8782,
      "自由": 8783,
      "良心": 8784,
      "苦苦": 8785,
      "解开": 8786,
      "赤身": 8787,
      "身下": 8788,
      "连忙": 8789,
      "随之": 8790,
      "难免": 8791,
      "需求": 8792,
      "鲜血": 8793,
      "不自禁": 8794,
      "不复": 8795,
      "伦比": 8796,
      "依依": 8797,
      "保留": 8798,
      "催情": 8799,
      "具体": 8800,
      "前方": 8801,
      "剩下": 8802,
      "单是": 8803,
      "即将": 8804,
      "吞吐": 8805,
      "妇女": 8806,
      "娜塔": 8807,
      "学校": 8808,
      "尖叫": 8809,
      "平衡": 8810,
      "废话": 8811,
      "当时": 8812,
      "快速": 8813,
      "念念": 8814,
      "想法": 8815,
      "手里": 8816,
      "打算": 8817,
      "改变": 8818,
      "效果": 8819,
      "是因为": 8820,
      "显然": 8821,
      "杀手": 8822,
      "柔情": 8823,
      "欣然": 8824,
      "比如": 8825,
      "活力": 8826,
      "源源": 8827,
      "理智": 8828,
      "白眼": 8829,
      "秘密": 8830,
      "红了": 8831,
      "臀部": 8832,
      "裤袜": 8833,
      "转身": 8834,
      "这位": 8835,
      "连接": 8836,
      "迷人": 8837,
      "黑衣": 8838,
      "ga": 8839,
      "qu": 8840,
      "sh": 8841,
      "不值": 8842,
      "不曾": 8843,
      "也许": 8844,
      "亲吻": 8845,
      "价值": 8846,
      "何时": 8847,
      "信心": 8848,
      "出手": 8849,
      "反正": 8850,
      "后悔": 8851,
      "向外": 8852,
      "君子": 8853,
      "嘴角": 8854,
      "天真": 8855,
      "奈何": 8856,
      "始终": 8857,
      "害怕": 8858,
      "对手": 8859,
      "平时": 8860,
      "平静": 8861,
      "并且": 8862,
      "当当": 8863,
      "有意": 8864,
      "死去": 8865,
      "混合": 8866,
      "燃烧": 8867,
      "番话": 8868,
      "相比": 8869,
      "联系": 8870,
      "胯下": 8871,
      "话说": 8872,
      "跳动": 8873,
      "轻松": 8874,
      "高中": 8875,
      "高手": 8876,
      "se": 8877,
      "两手": 8878,
      "产生": 8879,
      "会长": 8880,
      "作响": 8881,
      "借着": 8882,
      "停车": 8883,
      "充实": 8884,
      "出生": 8885,
      "化为": 8886,
      "厌恶": 8887,
      "发情": 8888,
      "咬紧": 8889,
      "大脑": 8890,
      "天上": 8891,
      "帮助": 8892,
      "干脆": 8893,
      "当年": 8894,
      "必须": 8895,
      "惊慌": 8896,
      "或许": 8897,
      "所谓": 8898,
      "无能": 8899,
      "昏迷": 8900,
      "有用": 8901,
      "流出": 8902,
      "消失": 8903,
      "男友": 8904,
      "疑问": 8905,
      "直播": 8906,
      "眼花": 8907,
      "礼物": 8908,
      "稳稳": 8909,
      "粉色": 8910,
      "红唇": 8911,
      "罢了": 8912,
      "老子": 8913,
      "耳边": 8914,
      "肆意": 8915,
      "肩膀": 8916,
      "薄薄": 8917,
      "观音": 8918,
      "试图": 8919,
      "试探": 8920,
      "迅速": 8921,
      "追求": 8922,
      "长筒": 8923,
      "im": 8924,
      "丝不": 8925,
      "两眼": 8926,
      "了个": 8927,
      "今晚": 8928,
      "体验": 8929,
      "做到": 8930,
      "分子": 8931,
      "前面": 8932,
      "功夫": 8933,
      "博士": 8934,
      "发抖": 8935,
      "受到": 8936,
      "名字": 8937,
      "后果": 8938,
      "喷洒": 8939,
      "国际": 8940,
      "地里": 8941,
      "多分钟": 8942,
      "大手": 8943,
      "委屈": 8944,
      "小妖": 8945,
      "尽全力": 8946,
      "差不多": 8947,
      "平平": 8948,
      "年龄": 8949,
      "强行": 8950,
      "得上": 8951,
      "心头": 8952,
      "总是": 8953,
      "惊讶": 8954,
      "手臂": 8955,
      "扩张": 8956,
      "拉斯": 8957,
      "拿出": 8958,
      "接触": 8959,
      "接下来": 8960,
      "掩饰": 8961,
      "摸摸": 8962,
      "敲门": 8963,
      "机器": 8964,
      "来回": 8965,
      "气息": 8966,
      "激烈": 8967,
      "特殊": 8968,
      "眉目": 8969,
      "看出": 8970,
      "眼中": 8971,
      "眼皮": 8972,
      "算是": 8973,
      "脸颊": 8974,
      "节奏": 8975,
      "萝莉": 8976,
      "西装": 8977,
      "规模": 8978,
      "角度": 8979,
      "警觉": 8980,
      "证明": 8981,
      "说不": 8982,
      "说明": 8983,
      "足足": 8984,
      "重新": 8985,
      "面色": 8986,
      "飞行": 8987,
      "ny": 8988,
      "不利": 8989,
      "不对": 8990,
      "交叉": 8991,
      "出租": 8992,
      "别的": 8993,
      "勃勃": 8994,
      "压制": 8995,
      "后庭": 8996,
      "呆呆": 8997,
      "啤酒": 8998,
      "地板": 8999,
      "大胆": 9000,
      "婷婷": 9001,
      "尤其": 9002,
      "平常": 9003,
      "并不": 9004,
      "开来": 9005,
      "弟弟": 9006,
      "录像": 9007,
      "心虚": 9008,
      "成就": 9009,
      "抽出": 9010,
      "拥抱": 9011,
      "挡住": 9012,
      "插进": 9013,
      "支撑": 9014,
      "无暇": 9015,
      "无聊": 9016,
      "更衣": 9017,
      "极点": 9018,
      "母狗": 9019,
      "气质": 9020,
      "没法": 9021,
      "注目": 9022,
      "湿润": 9023,
      "演员": 9024,
      "热气": 9025,
      "爷爷": 9026,
      "皇帝": 9027,
      "空空": 9028,
      "突破": 9029,
      "立即": 9030,
      "粗大": 9031,
      "纵横": 9032,
      "置信": 9033,
      "羞人": 9034,
      "表现": 9035,
      "身躯": 9036,
      "那边": 9037,
      "门外": 9038,
      "随即": 9039,
      "青年": 9040,
      "办公室": 9041,
      "不该": 9042,
      "丝毫": 9043,
      "两口": 9044,
      "之上": 9045,
      "会议": 9046,
      "使得": 9047,
      "全是": 9048,
      "关心": 9049,
      "反复": 9050,
      "可惜": 9051,
      "咧嘴": 9052,
      "咪咪": 9053,
      "哭泣": 9054,
      "垂涎": 9055,
      "多得": 9056,
      "大汗": 9057,
      "失色": 9058,
      "好事": 9059,
      "如花": 9060,
      "差点": 9061,
      "徒劳": 9062,
      "得了": 9063,
      "心急": 9064,
      "技术": 9065,
      "排泄": 9066,
      "提起": 9067,
      "无尽": 9068,
      "无形": 9069,
      "明天": 9070,
      "曾经": 9071,
      "杂着": 9072,
      "来者": 9073,
      "正好": 9074,
      "母子": 9075,
      "浑圆": 9076,
      "浴室": 9077,
      "熟悉": 9078,
      "系统": 9079,
      "纠缠": 9080,
      "红润": 9081,
      "红酒": 9082,
      "耸肩": 9083,
      "胸口": 9084,
      "胸罩": 9085,
      "花样": 9086,
      "虐待": 9087,
      "裙子": 9088,
      "语气": 9089,
      "调教": 9090,
      "走进": 9091,
      "过于": 9092,
      "食指": 9093,
      "鼓起": 9094,
      "不由得": 9095,
      "上床": 9096,
      "不信": 9097,
      "不小": 9098,
      "不掉": 9099,
      "不容易": 9100,
      "两次": 9101,
      "交织": 9102,
      "今日": 9103,
      "仍然": 9104,
      "作战": 9105,
      "到处": 9106,
      "功能": 9107,
      "另外": 9108,
      "只不过": 9109,
      "否认": 9110,
      "吸吮": 9111,
      "团长": 9112,
      "太大": 9113,
      "头晕": 9114,
      "好歹": 9115,
      "娇媚": 9116,
      "媚眼": 9117,
      "小手": 9118,
      "就让": 9119,
      "尽量": 9120,
      "开发": 9121,
      "快点": 9122,
      "快要": 9123,
      "技巧": 9124,
      "指甲": 9125,
      "推开": 9126,
      "揉捏": 9127,
      "放下": 9128,
      "无关": 9129,
      "无名": 9130,
      "有名": 9131,
      "有话": 9132,
      "本能": 9133,
      "浓浓": 9134,
      "温暖": 9135,
      "湿漉": 9136,
      "澎湃": 9137,
      "灼热": 9138,
      "父母": 9139,
      "状况": 9140,
      "狙击": 9141,
      "独自": 9142,
      "现场": 9143,
      "皮肤": 9144,
      "稍微": 9145,
      "而后": 9146,
      "胖子": 9147,
      "节目": 9148,
      "荡荡": 9149,
      "菲尔": 9150,
      "让人": 9151,
      "这件": 9152,
      "这才": 9153,
      "这时候": 9154,
      "那根": 9155,
      "阴户": 9156,
      "怎么办": 9157,
      "不及待": 9158,
      "un": 9159,
      "不失": 9160,
      "中午": 9161,
      "举手": 9162,
      "催眠": 9163,
      "允许": 9164,
      "全心": 9165,
      "公分": 9166,
      "其事": 9167,
      "前辈": 9168,
      "吃饭": 9169,
      "嗡嗡": 9170,
      "噗嗤": 9171,
      "圆形": 9172,
      "场合": 9173,
      "天花": 9174,
      "帝国": 9175,
      "忌惮": 9176,
      "愉悦": 9177,
      "拼命": 9178,
      "无双": 9179,
      "昏昏": 9180,
      "晶晶": 9181,
      "江湖": 9182,
      "没过": 9183,
      "炼金": 9184,
      "爱好": 9185,
      "狰狞": 9186,
      "现代": 9187,
      "理会": 9188,
      "相同": 9189,
      "磨蹭": 9190,
      "空间": 9191,
      "笑笑": 9192,
      "粉嫩": 9193,
      "而上": 9194,
      "胆大": 9195,
      "脾气": 9196,
      "自作": 9197,
      "要死": 9198,
      "解放": 9199,
      "起码": 9200,
      "车上": 9201,
      "进攻": 9202,
      "长大": 9203,
      "靠在": 9204,
      "高速": 9205,
      "鸳鸯": 9206,
      "龙头": 9207,
      "上方": 9208,
      "临走": 9209,
      "为主": 9210,
      "了解": 9211,
      "估计": 9212,
      "体会": 9213,
      "做出": 9214,
      "共同": 9215,
      "听见": 9216,
      "响起": 9217,
      "商量": 9218,
      "喉咙": 9219,
      "大哭": 9220,
      "大陆": 9221,
      "密密": 9222,
      "开朗": 9223,
      "心来": 9224,
      "心脏": 9225,
      "性交": 9226,
      "恐怕": 9227,
      "情欲": 9228,
      "想来": 9229,
      "打扫": 9230,
      "扮演": 9231,
      "摆手": 9232,
      "放松": 9233,
      "春光": 9234,
      "是从": 9235,
      "最好": 9236,
      "歪歪": 9237,
      "气势": 9238,
      "水晶": 9239,
      "沉浸": 9240,
      "沸腾": 9241,
      "漆黑": 9242,
      "熟妇": 9243,
      "直流": 9244,
      "相机": 9245,
      "眼珠": 9246,
      "纤纤": 9247,
      "纤细": 9248,
      "职业": 9249,
      "肛门": 9250,
      "脚丫": 9251,
      "舅妈": 9252,
      "舌尖": 9253,
      "落下": 9254,
      "血流": 9255,
      "这边": 9256,
      "进退": 9257,
      "通过": 9258,
      "遮掩": 9259,
      "风流": 9260,
      "饥渴": 9261,
      "骄傲": 9262,
      "不好意思": 9263,
      "点点头": 9264,
      "轻轻地": 9265,
      "ca": 9266,
      "gh": 9267,
      "pp": 9268,
      "丰富": 9269,
      "主持": 9270,
      "乌黑": 9271,
      "付出": 9272,
      "几分": 9273,
      "前进": 9274,
      "印象": 9275,
      "发动": 9276,
      "吮吸": 9277,
      "哪有": 9278,
      "嘴边": 9279,
      "团团": 9280,
      "尴尬": 9281,
      "很大": 9282,
      "心如": 9283,
      "怀中": 9284,
      "急促": 9285,
      "手握": 9286,
      "打扰": 9287,
      "最近": 9288,
      "朦胧": 9289,
      "求饶": 9290,
      "汗水": 9291,
      "没用": 9292,
      "爱液": 9293,
      "环境": 9294,
      "白嫩": 9295,
      "直入": 9296,
      "相互": 9297,
      "知觉": 9298,
      "破坏": 9299,
      "禽兽": 9300,
      "等待": 9301,
      "素质": 9302,
      "而过": 9303,
      "耳朵": 9304,
      "背景": 9305,
      "脚底": 9306,
      "自已": 9307,
      "至少": 9308,
      "花钱": 9309,
      "落地": 9310,
      "衬托": 9311,
      "视线": 9312,
      "走了": 9313,
      "走来": 9314,
      "超过": 9315,
      "连绵": 9316,
      "迟疑": 9317,
      "适合": 9318,
      "重点": 9319,
      "闺女": 9320,
      "难怪": 9321,
      "风尘": 9322,
      "马尾": 9323,
      "不得不": 9324,
      "指挥官": 9325,
      "大多数": 9326,
      "ph": 9327,
      "上午": 9328,
      "不择": 9329,
      "举起": 9330,
      "代价": 9331,
      "依稀": 9332,
      "公安": 9333,
      "几句": 9334,
      "动不动": 9335,
      "勃起": 9336,
      "双乳": 9337,
      "发自": 9338,
      "同性": 9339,
      "咧咧": 9340,
      "喷射": 9341,
      "地说": 9342,
      "坐下": 9343,
      "处于": 9344,
      "大楼": 9345,
      "好感": 9346,
      "姐夫": 9347,
      "实力": 9348,
      "并非": 9349,
      "幽幽": 9350,
      "很难": 9351,
      "思索": 9352,
      "总会": 9353,
      "恋爱": 9354,
      "所见": 9355,
      "拍卖": 9356,
      "提高": 9357,
      "文件": 9358,
      "无忧": 9359,
      "最终": 9360,
      "梳妆": 9361,
      "欣喜": 9362,
      "洋溢": 9363,
      "爽死": 9364,
      "画面": 9365,
      "相似": 9366,
      "着眼": 9367,
      "睡梦": 9368,
      "窗户": 9369,
      "绝伦": 9370,
      "美好": 9371,
      "胜利": 9372,
      "胸膛": 9373,
      "腰部": 9374,
      "花心": 9375,
      "荡漾": 9376,
      "蔓延": 9377,
      "蝴蝶": 9378,
      "这群": 9379,
      "道歉": 9380,
      "邀请": 9381,
      "那天": 9382,
      "陷入": 9383,
      "难过": 9384,
      "集中": 9385,
      "集团": 9386,
      "露出来": 9387,
      "颠倒": 9388,
      "哈哈哈": 9389,
      "不在乎": 9390,
      "bi": 9391,
      "ok": 9392,
      "or": 9393,
      "ot": 9394,
      "下方": 9395,
      "不愿": 9396,
      "不慢": 9397,
      "不以为": 9398,
      "两位": 9399,
      "之徒": 9400,
      "了笑": 9401,
      "从此": 9402,
      "仙子": 9403,
      "以待": 9404,
      "任务": 9405,
      "使劲": 9406,
      "停下": 9407,
      "全都": 9408,
      "冲锋": 9409,
      "几秒": 9410,
      "出乎": 9411,
      "变态": 9412,
      "吃惊": 9413,
      "向上": 9414,
      "喘气": 9415,
      "国家": 9416,
      "坚挺": 9417,
      "处理": 9418,
      "大块": 9419,
      "娇喘": 9420,
      "安排": 9421,
      "小口": 9422,
      "少妇": 9423,
      "应对": 9424,
      "弹性": 9425,
      "怒火": 9426,
      "感动": 9427,
      "旋转": 9428,
      "无止": 9429,
      "无疑": 9430,
      "昨晚": 9431,
      "有没有": 9432,
      "欣赏": 9433,
      "火焰": 9434,
      "用手": 9435,
      "疑惑": 9436,
      "目眩": 9437,
      "相处": 9438,
      "破烂": 9439,
      "笑了笑": 9440,
      "笼罩": 9441,
      "紧密": 9442,
      "美味": 9443,
      "美眸": 9444,
      "羞涩": 9445,
      "肚脐": 9446,
      "花园": 9447,
      "草丛": 9448,
      "营养": 9449,
      "血液": 9450,
      "要说": 9451,
      "误会": 9452,
      "贴身": 9453,
      "走出": 9454,
      "跟鞋": 9455,
      "身影": 9456,
      "转向": 9457,
      "通红": 9458,
      "遇到": 9459,
      "阴毛": 9460,
      "随身": 9461,
      "香味": 9462,
      "高跟鞋": 9463,
      "黑暗": 9464,
      "上课": 9465,
      "不惜": 9466,
      "不识": 9467,
      "专业": 9468,
      "人来": 9469,
      "侵犯": 9470,
      "侵略": 9471,
      "值得": 9472,
      "克制": 9473,
      "公事": 9474,
      "关头": 9475,
      "凌乱": 9476,
      "出入": 9477,
      "势力": 9478,
      "半截": 9479,
      "双方": 9480,
      "双脚": 9481,
      "口交": 9482,
      "可真": 9483,
      "吃不": 9484,
      "各有": 9485,
      "各样": 9486,
      "向前": 9487,
      "品味": 9488,
      "回应": 9489,
      "回想": 9490,
      "圆圆": 9491,
      "大步": 9492,
      "大汉": 9493,
      "女神": 9494,
      "好气": 9495,
      "威风": 9496,
      "它们": 9497,
      "宝贝": 9498,
      "寂寞": 9499,
      "干嘛": 9500,
      "建筑": 9501,
      "得出": 9502,
      "心想": 9503,
      "情报": 9504,
      "惊喜": 9505,
      "惊恐": 9506,
      "扑鼻": 9507,
      "拉到": 9508,
      "挤压": 9509,
      "放弃": 9510,
      "暂时": 9511,
      "杯酒": 9512,
      "松开": 9513,
      "椅子": 9514,
      "每个": 9515,
      "沉溺": 9516,
      "洛妮娅": 9517,
      "流浪": 9518,
      "清脆": 9519,
      "灯火": 9520,
      "灵活": 9521,
      "照片": 9522,
      "牙关": 9523,
      "牙齿": 9524,
      "眯眯": 9525,
      "碰到": 9526,
      "神色": 9527,
      "科技": 9528,
      "等到": 9529,
      "续续": 9530,
      "羞愧": 9531,
      "胴体": 9532,
      "萨斯": 9533,
      "象征": 9534,
      "转移": 9535,
      "野川": 9536,
      "长发": 9537,
      "难为": 9538,
      "震惊": 9539,
      "服务员": 9540,
      "呻吟声": 9541,
      "上次": 9542,
      "下课": 9543,
      "下意识": 9544,
      "不言": 9545,
      "不露": 9546,
      "严肃": 9547,
      "之色": 9548,
      "交错": 9549,
      "人们": 9550,
      "以外": 9551,
      "任由": 9552,
      "伴随": 9553,
      "光彩": 9554,
      "入侵": 9555,
      "再度": 9556,
      "利落": 9557,
      "半点": 9558,
      "叔叔": 9559,
      "叫床": 9560,
      "含情": 9561,
      "哪怕": 9562,
      "啧啧": 9563,
      "坚定": 9564,
      "大名": 9565,
      "太平": 9566,
      "娇羞": 9567,
      "对准": 9568,
      "帐篷": 9569,
      "形成": 9570,
      "往往": 9571,
      "性爱": 9572,
      "感染": 9573,
      "成绩": 9574,
      "抓紧": 9575,
      "折磨": 9576,
      "抵挡": 9577,
      "抽动": 9578,
      "招架": 9579,
      "损失": 9580,
      "提前": 9581,
      "放着": 9582,
      "时代": 9583,
      "暧昧": 9584,
      "更为": 9585,
      "朝着": 9586,
      "期间": 9587,
      "机械": 9588,
      "根子": 9589,
      "根据": 9590,
      "活泼": 9591,
      "渴望": 9592,
      "滚烫": 9593,
      "生怕": 9594,
      "眼帘": 9595,
      "眼眶": 9596,
      "等等": 9597,
      "紧要": 9598,
      "终究": 9599,
      "缕缕": 9600,
      "背上": 9601,
      "腰肢": 9602,
      "自身": 9603,
      "蠕动": 9604,
      "行李": 9605,
      "近乎": 9606,
      "霸王": 9607,
      "靠着": 9608,
      "音乐": 9609,
      "风云": 9610,
      "小小的": 9611,
      "be": 9612,
      "ly": 9613,
      "下定": 9614,
      "专心": 9615,
      "东南": 9616,
      "两年": 9617,
      "两片": 9618,
      "为何": 9619,
      "为难": 9620,
      "交给": 9621,
      "人命": 9622,
      "人士": 9623,
      "人头": 9624,
      "半年": 9625,
      "南宫": 9626,
      "原地": 9627,
      "后脑": 9628,
      "嗷嗷": 9629,
      "地狱": 9630,
      "声色": 9631,
      "大会": 9632,
      "大喊": 9633,
      "太太": 9634,
      "女王": 9635,
      "好意": 9636,
      "如雨": 9637,
      "委员": 9638,
      "对比": 9639,
      "市场": 9640,
      "当中": 9641,
      "怀疑": 9642,
      "惊人": 9643,
      "惊叹": 9644,
      "战场": 9645,
      "房门": 9646,
      "打个": 9647,
      "拔出": 9648,
      "按照": 9649,
      "掌门": 9650,
      "揉搓": 9651,
      "无敌": 9652,
      "欲死": 9653,
      "欺负": 9654,
      "步步": 9655,
      "水流": 9656,
      "没多": 9657,
      "注射": 9658,
      "流下": 9659,
      "然无": 9660,
      "照顾": 9661,
      "甚么": 9662,
      "用品": 9663,
      "看上去": 9664,
      "确定": 9665,
      "礼服": 9666,
      "神采": 9667,
      "站立": 9668,
      "自知": 9669,
      "范围": 9670,
      "蕾丝": 9671,
      "蜜桃": 9672,
      "西门": 9673,
      "触感": 9674,
      "责任": 9675,
      "身心": 9676,
      "过后": 9677,
      "还好": 9678,
      "远坂": 9679,
      "那双": 9680,
      "部队": 9681,
      "金发": 9682,
      "阴阳": 9683,
      "靠近": 9684,
      "顷刻": 9685,
      "频率": 9686,
      "餐厅": 9687,
      "香气": 9688,
      "骚货": 9689,
      "不由自主": 9690,
      "淡淡的": 9691,
      "上前": 9692,
      "不耐": 9693,
      "不轻": 9694,
      "世间": 9695,
      "两声": 9696,
      "个多": 9697,
      "交集": 9698,
      "亲生": 9699,
      "冰凉": 9700,
      "前所未": 9701,
      "半个": 9702,
      "占有": 9703,
      "发泄": 9704,
      "古怪": 9705,
      "可怕": 9706,
      "否则": 9707,
      "咬着": 9708,
      "回味": 9709,
      "声不": 9710,
      "多么": 9711,
      "天鹅": 9712,
      "失措": 9713,
      "失落": 9714,
      "尽情": 9715,
      "巨乳": 9716,
      "巴尔": 9717,
      "强者": 9718,
      "形状": 9719,
      "心地": 9720,
      "快活": 9721,
      "性欲": 9722,
      "意见": 9723,
      "扶著": 9724,
      "指头": 9725,
      "挺胸": 9726,
      "掏出": 9727,
      "接近": 9728,
      "搂住": 9729,
      "摸索": 9730,
      "敌人": 9731,
      "无用": 9732,
      "有何": 9733,
      "柔柔": 9734,
      "流着": 9735,
      "浓稠": 9736,
      "淫液": 9737,
      "淫靡": 9738,
      "深情": 9739,
      "热血": 9740,
      "玉腿": 9741,
      "男性": 9742,
      "相反": 9743,
      "眼镜": 9744,
      "究竟": 9745,
      "紧握": 9746,
      "缠绵": 9747,
      "置身": 9748,
      "自制": 9749,
      "自行": 9750,
      "自豪": 9751,
      "花瓣": 9752,
      "茫然": 9753,
      "表达": 9754,
      "豆豆": 9755,
      "赞叹": 9756,
      "路易": 9757,
      "身旁": 9758,
      "连连": 9759,
      "逼人": 9760,
      "锻炼": 9761,
      "阴部": 9762,
      "附近": 9763,
      "面带": 9764,
      "额头": 9765,
      "飞扬": 9766,
      "高潮": 9767,
      "ass": 9768,
      "ion": 9769,
      "下班": 9770,
      "不良": 9771,
      "不适": 9772,
      "主教": 9773,
      "交换": 9774,
      "代表": 9775,
      "休闲": 9776,
      "伸进": 9777,
      "例外": 9778,
      "健身": 9779,
      "光芒": 9780,
      "冰山": 9781,
      "医院": 9782,
      "发展": 9783,
      "受害": 9784,
      "可人": 9785,
      "向着": 9786,
      "呼哧": 9787,
      "咕咚": 9788,
      "咯吱": 9789,
      "咳嗽": 9790,
      "哎呀": 9791,
      "喷出": 9792,
      "堕落": 9793,
      "天龙": 9794,
      "头顶": 9795,
      "好爽": 9796,
      "婊子": 9797,
      "子弟": 9798,
      "完整": 9799,
      "客人": 9800,
      "尝到": 9801,
      "工具": 9802,
      "已久": 9803,
      "弯弯": 9804,
      "强壮": 9805,
      "忐忑": 9806,
      "思想": 9807,
      "惩罚": 9808,
      "愤怒": 9809,
      "投降": 9810,
      "换成": 9811,
      "摇晃": 9812,
      "放到": 9813,
      "教育": 9814,
      "暗示": 9815,
      "未来": 9816,
      "松松": 9817,
      "没错": 9818,
      "法师": 9819,
      "泪水": 9820,
      "浮现": 9821,
      "淫欲": 9822,
      "淫笑": 9823,
      "激情": 9824,
      "热水": 9825,
      "焦急": 9826,
      "爱情": 9827,
      "犹如": 9828,
      "生机": 9829,
      "睫毛": 9830,
      "私处": 9831,
      "移动": 9832,
      "粉红色": 9833,
      "系列": 9834,
      "纪念": 9835,
      "绝不": 9836,
      "美妇": 9837,
      "老大": 9838,
      "脉脉": 9839,
      "膝盖": 9840,
      "自从": 9841,
      "自觉": 9842,
      "舔着": 9843,
      "获得": 9844,
      "菊花": 9845,
      "葡萄": 9846,
      "貌美": 9847,
      "还用": 9848,
      "这句": 9849,
      "这话": 9850,
      "酥麻": 9851,
      "防御": 9852,
      "障碍": 9853,
      "魔术": 9854,
      "黯然": 9855,
      "mi": 9856,
      "ng": 9857,
      "上楼": 9858,
      "上海": 9859,
      "上身": 9860,
      "下楼": 9861,
      "不满": 9862,
      "不稳": 9863,
      "不输": 9864,
      "两边": 9865,
      "乐意": 9866,
      "也好": 9867,
      "人才": 9868,
      "企业": 9869,
      "作出": 9870,
      "保证": 9871,
      "充分": 9872,
      "先是": 9873,
      "光泽": 9874,
      "其妙": 9875,
      "准确": 9876,
      "初次": 9877,
      "到时候": 9878,
      "发亮": 9879,
      "口腔": 9880,
      "向下": 9881,
      "圆润": 9882,
      "在外": 9883,
      "大伙": 9884,
      "大喜": 9885,
      "大张": 9886,
      "大方": 9887,
      "头昏": 9888,
      "夹住": 9889,
      "女士": 9890,
      "好玩": 9891,
      "好不好": 9892,
      "如痴": 9893,
      "如醉": 9894,
      "婆婆": 9895,
      "嫂子": 9896,
      "就此": 9897,
      "并肩": 9898,
      "床单": 9899,
      "强人": 9900,
      "循环": 9901,
      "必定": 9902,
      "忙碌": 9903,
      "怒气": 9904,
      "思绪": 9905,
      "总有": 9906,
      "惊云": 9907,
      "手提": 9908,
      "打破": 9909,
      "打电话": 9910,
      "扭扭": 9911,
      "抗拒": 9912,
      "接连": 9913,
      "方法": 9914,
      "时半": 9915,
      "映入": 9916,
      "曲线": 9917,
      "有种": 9918,
      "极为": 9919,
      "柔嫩": 9920,
      "格格": 9921,
      "模特": 9922,
      "没能": 9923,
      "沾满": 9924,
      "波澜": 9925,
      "派出": 9926,
      "游泳": 9927,
      "猜测": 9928,
      "环绕": 9929,
      "理解": 9930,
      "留在": 9931,
      "疲倦": 9932,
      "痉挛": 9933,
      "监视": 9934,
      "秀发": 9935,
      "笨蛋": 9936,
      "粗壮": 9937,
      "粗暴": 9938,
      "紧闭": 9939,
      "罪恶": 9940,
      "背着": 9941,
      "脱掉": 9942,
      "脸庞": 9943,
      "腰带": 9944,
      "自尊": 9945,
      "舰长": 9946,
      "视频": 9947,
      "说起": 9948,
      "资本": 9949,
      "轻易": 9950,
      "辆车": 9951,
      "长久": 9952,
      "颤巍巍": 9953,
      "风度": 9954,
      "香舌": 9955,
      "魔力": 9956,
      "默契": 9957,
      "不知所": 9958,
      "所有人": 9959,
      "红了脸": 9960,
      "下巴": 9961,
      "两根": 9962,
      "两颗": 9963,
      "个头": 9964,
      "举止": 9965,
      "事件": 9966,
      "传送": 9967,
      "体贴": 9968,
      "倒也": 9969,
      "倾城": 9970,
      "健康": 9971,
      "偶尔": 9972,
      "关照": 9973,
      "冰冷": 9974,
      "分别": 9975,
      "刚好": 9976,
      "别说": 9977,
      "刺痛": 9978,
      "副总": 9979,
      "动物": 9980,
      "厚厚": 9981,
      "厨房": 9982,
      "发麻": 9983,
      "各个": 9984,
      "含入": 9985,
      "吸血": 9986,
      "哪个": 9987,
      "在乎": 9988,
      "士兵": 9989,
      "大战": 9990,
      "大眼": 9991,
      "大门": 9992,
      "太子": 9993,
      "师父": 9994,
      "开放": 9995,
      "怎能": 9996,
      "所能": 9997,
      "打量": 9998,
      "接过": 9999,
      "教师": 10000,
      "整理": 10001,
      "无以": 10002,
      "服装": 10003,
      "染上": 10004,
      "正大": 10005,
      "武装": 10006,
      "求求": 10007,
      "沿着": 10008,
      "泥泞": 10009,
      "注视": 10010,
      "淫乱": 10011,
      "温热": 10012,
      "满头": 10013,
      "潮水": 10014,
      "熟睡": 10015,
      "睡着": 10016,
      "破碎": 10017,
      "示意": 10018,
      "礼貌": 10019,
      "神圣": 10020,
      "稳定": 10021,
      "箱子": 10022,
      "精致": 10023,
      "紧缩": 10024,
      "结结": 10025,
      "绳子": 10026,
      "聚集": 10027,
      "能量": 10028,
      "蒂娜": 10029,
      "虚弱": 10030,
      "衬衫": 10031,
      "讨论": 10032,
      "说服": 10033,
      "说不定": 10034,
      "调皮": 10035,
      "费力": 10036,
      "走到": 10037,
      "走向": 10038,
      "越发": 10039,
      "足够": 10040,
      "蹂躏": 10041,
      "迎合": 10042,
      "随意": 10043,
      "魔物": 10044,
      "其他人": 10045,
      "转过身": 10046,
      "从头到": 10047,
      "ER": 10048,
      "ed": 10049,
      "ki": 10050,
      "下下": 10051,
      "不依": 10052,
      "不拢": 10053,
      "不看": 10054,
      "不肯": 10055,
      "不迭": 10056,
      "丰腴": 10057,
      "主要": 10058,
      "交合": 10059,
      "人工": 10060,
      "人情": 10061,
      "伤痕": 10062,
      "凛然": 10063,
      "化成": 10064,
      "参与": 10065,
      "双臂": 10066,
      "吃醋": 10067,
      "各自": 10068,
      "后背": 10069,
      "含住": 10070,
      "呕吐": 10071,
      "品尝": 10072,
      "圣女": 10073,
      "地道": 10074,
      "夹紧": 10075,
      "女仆": 10076,
      "女朋友": 10077,
      "奶头": 10078,
      "奸淫": 10079,
      "好似": 10080,
      "好色": 10081,
      "姨妈": 10082,
      "年来": 10083,
      "床边": 10084,
      "开车": 10085,
      "异样": 10086,
      "念头": 10087,
      "怀孕": 10088,
      "态度": 10089,
      "性格": 10090,
      "恶魔": 10091,
      "我见": 10092,
      "报仇": 10093,
      "拍拍": 10094,
      "挽回": 10095,
      "掉落": 10096,
      "掩盖": 10097,
      "摆动": 10098,
      "数字": 10099,
      "明知": 10100,
      "显现": 10101,
      "最深处": 10102,
      "有个": 10103,
      "杀气": 10104,
      "束缚": 10105,
      "根部": 10106,
      "比起": 10107,
      "没来": 10108,
      "泉水": 10109,
      "注定": 10110,
      "滑腻": 10111,
      "激起": 10112,
      "灯光": 10113,
      "点多": 10114,
      "牺牲": 10115,
      "理所": 10116,
      "留下来": 10117,
      "目标": 10118,
      "看过": 10119,
      "神魂": 10120,
      "笑话": 10121,
      "粉红": 10122,
      "约翰": 10123,
      "细语": 10124,
      "绝代": 10125,
      "而易": 10126,
      "而起": 10127,
      "胸脯": 10128,
      "腰间": 10129,
      "自顾": 10130,
      "至此": 10131,
      "血腥": 10132,
      "行行": 10133,
      "表演": 10134,
      "被子": 10135,
      "语言": 10136,
      "说说": 10137,
      "豆腐": 10138,
      "贪婪": 10139,
      "身前": 10140,
      "转头": 10141,
      "转瞬": 10142,
      "运气": 10143,
      "还会": 10144,
      "遥控": 10145,
      "那位": 10146,
      "那条": 10147,
      "重心": 10148,
      "闲着": 10149,
      "防备": 10150,
      "陡然": 10151,
      "非同": 10152,
      "面包": 10153,
      "骚扰": 10154,
      "ina": 10155,
      "怎么回事": 10156,
      "发现自己": 10157,
      "上衣": 10158,
      "两侧": 10159,
      "两步": 10160,
      "两道": 10161,
      "些许": 10162,
      "亲手": 10163,
      "仙境": 10164,
      "仙女": 10165,
      "伺候": 10166,
      "低低": 10167,
      "克拉": 10168,
      "凹凸": 10169,
      "出声": 10170,
      "利用": 10171,
      "到达": 10172,
      "包括": 10173,
      "参加": 10174,
      "发光": 10175,
      "发热": 10176,
      "可不是": 10177,
      "嘀咕": 10178,
      "城里": 10179,
      "夜叉": 10180,
      "大事": 10181,
      "大姐": 10182,
      "天使": 10183,
      "天气": 10184,
      "失望": 10185,
      "好友": 10186,
      "嫩嫩": 10187,
      "家族": 10188,
      "对付": 10189,
      "小女孩": 10190,
      "少爷": 10191,
      "尸体": 10192,
      "尽心": 10193,
      "崽子": 10194,
      "异物": 10195,
      "强度": 10196,
      "德拉": 10197,
      "怒吼": 10198,
      "怒目": 10199,
      "惊天": 10200,
      "感慨": 10201,
      "所欲": 10202,
      "扑倒": 10203,
      "执行": 10204,
      "承认": 10205,
      "按住": 10206,
      "挑战": 10207,
      "提醒": 10208,
      "握紧": 10209,
      "搓揉": 10210,
      "搭配": 10211,
      "撕破": 10212,
      "故作": 10213,
      "无故": 10214,
      "无缺": 10215,
      "无话": 10216,
      "日常": 10217,
      "时而": 10218,
      "时不时": 10219,
      "旺盛": 10220,
      "显出": 10221,
      "暴雨": 10222,
      "最佳": 10223,
      "有条": 10224,
      "服从": 10225,
      "来看": 10226,
      "来自": 10227,
      "棒棒": 10228,
      "气氛": 10229,
      "没关系": 10230,
      "清洁": 10231,
      "湿湿": 10232,
      "火烧": 10233,
      "灰色": 10234,
      "珍珠": 10235,
      "由美": 10236,
      "男朋友": 10237,
      "疙瘩": 10238,
      "监控": 10239,
      "眼色": 10240,
      "稍稍": 10241,
      "穿过": 10242,
      "管家": 10243,
      "紧接着": 10244,
      "红着脸": 10245,
      "罗兰": 10246,
      "美金": 10247,
      "耳赤": 10248,
      "脱口": 10249,
      "自动": 10250,
      "色鬼": 10251,
      "芳草": 10252,
      "若有": 10253,
      "装饰": 10254,
      "诉说": 10255,
      "购物": 10256,
      "边缘": 10257,
      "迷离": 10258,
      "适应": 10259,
      "透过": 10260,
      "通通": 10261,
      "重量": 10262,
      "销魂": 10263,
      "限于": 10264,
      "限制": 10265,
      "除非": 10266,
      "难度": 10267,
      "非凡": 10268,
      "顺眼": 10269,
      "香水": 10270,
      "马桶": 10271,
      "高贵": 10272,
      "齐心": 10273,
      "人心魄": 10274,
      "ght": 10275,
      "下场": 10276,
      "不倒": 10277,
      "不变": 10278,
      "不妙": 10279,
      "不快": 10280,
      "不透": 10281,
      "不饶": 10282,
      "个人": 10283,
      "举动": 10284,
      "伪装": 10285,
      "便利": 10286,
      "偏偏": 10287,
      "做好": 10288,
      "停顿": 10289,
      "停下来": 10290,
      "写字": 10291,
      "出水": 10292,
      "北京": 10293,
      "发觉": 10294,
      "只得": 10295,
      "听听": 10296,
      "善良": 10297,
      "固定": 10298,
      "地步": 10299,
      "场景": 10300,
      "基地": 10301,
      "墙壁": 10302,
      "增加": 10303,
      "大街": 10304,
      "天色": 10305,
      "头去": 10306,
      "好不容易": 10307,
      "威尔": 10308,
      "威胁": 10309,
      "寂静": 10310,
      "强力": 10311,
      "当成": 10312,
      "形象": 10313,
      "得多": 10314,
      "心底": 10315,
      "恨不得": 10316,
      "感应": 10317,
      "或是": 10318,
      "手腕": 10319,
      "打断": 10320,
      "抱歉": 10321,
      "招手": 10322,
      "按捺": 10323,
      "插进去": 10324,
      "搀扶": 10325,
      "无几": 10326,
      "无边": 10327,
      "时光": 10328,
      "晚餐": 10329,
      "智能": 10330,
      "暗暗": 10331,
      "有数": 10332,
      "有致": 10333,
      "未免": 10334,
      "村里": 10335,
      "来临": 10336,
      "极乐": 10337,
      "极度": 10338,
      "极限": 10339,
      "格外": 10340,
      "梨花": 10341,
      "樱唇": 10342,
      "欲绝": 10343,
      "比拟": 10344,
      "波浪": 10345,
      "深渊": 10346,
      "混蛋": 10347,
      "清澈": 10348,
      "游乐": 10349,
      "满是": 10350,
      "激发": 10351,
      "烘烘": 10352,
      "瓜子": 10353,
      "目睹": 10354,
      "眼看": 10355,
      "短信": 10356,
      "示弱": 10357,
      "神奇": 10358,
      "私下": 10359,
      "种种": 10360,
      "突发": 10361,
      "等候": 10362,
      "结实": 10363,
      "绝望": 10364,
      "缝隙": 10365,
      "美容": 10366,
      "翘起": 10367,
      "而无": 10368,
      "脖颈": 10369,
      "舒爽": 10370,
      "表面": 10371,
      "要不是": 10372,
      "观看": 10373,
      "讨好": 10374,
      "询问": 10375,
      "调整": 10376,
      "谨慎": 10377,
      "贝拉": 10378,
      "赶快": 10379,
      "超级": 10380,
      "躲藏": 10381,
      "近在": 10382,
      "这儿": 10383,
      "连串": 10384,
      "迷惑": 10385,
      "造成": 10386,
      "酥胸": 10387,
      "镇定": 10388,
      "长得": 10389,
      "闪耀": 10390,
      "闪过": 10391,
      "陆景": 10392,
      "顺势": 10393,
      "颜色": 10394,
      "风景": 10395,
      "黯淡": 10396,
      "闭上眼睛": 10397,
      "主义者": 10398,
      "缓缓的": 10399,
      "长长的": 10400,
      "上了": 10401,
      "下次": 10402,
      "不整": 10403,
      "不染": 10404,
      "不败": 10405,
      "不问": 10406,
      "不闻": 10407,
      "个劲": 10408,
      "乳交": 10409,
      "事儿": 10410,
      "事务": 10411,
      "人多": 10412,
      "从中": 10413,
      "价格": 10414,
      "何必": 10415,
      "你去": 10416,
      "信息": 10417,
      "先前": 10418,
      "公公": 10419,
      "公寓": 10420,
      "内侧": 10421,
      "内容": 10422,
      "军官": 10423,
      "冷淡": 10424,
      "冷静": 10425,
      "几名": 10426,
      "几日": 10427,
      "分寸": 10428,
      "加入": 10429,
      "双双": 10430,
      "发誓": 10431,
      "只会": 10432,
      "只怕": 10433,
      "吩咐": 10434,
      "唾液": 10435,
      "嘘嘘": 10436,
      "圈圈": 10437,
      "在家": 10438,
      "地人": 10439,
      "坏事": 10440,
      "声势": 10441,
      "外国": 10442,
      "大厅": 10443,
      "天空": 10444,
      "契约": 10445,
      "好象": 10446,
      "如兰": 10447,
      "姿态": 10448,
      "婀娜": 10449,
      "婚纱": 10450,
      "宴会": 10451,
      "尝试": 10452,
      "居高": 10453,
      "工程": 10454,
      "巴掌": 10455,
      "帮人": 10456,
      "异能": 10457,
      "强制": 10458,
      "必要": 10459,
      "情形": 10460,
      "愈发": 10461,
      "愈来": 10462,
      "我家": 10463,
      "戒指": 10464,
      "房中": 10465,
      "手足": 10466,
      "打起": 10467,
      "护卫": 10468,
      "抽送": 10469,
      "指尖": 10470,
      "指着": 10471,
      "挺起": 10472,
      "捕捉": 10473,
      "接下": 10474,
      "提出": 10475,
      "撇嘴": 10476,
      "撑开": 10477,
      "放荡": 10478,
      "敏锐": 10479,
      "方才": 10480,
      "无限": 10481,
      "早餐": 10482,
      "有时候": 10483,
      "本身": 10484,
      "机关": 10485,
      "李正": 10486,
      "柔声": 10487,
      "毁灭": 10488,
      "比例": 10489,
      "气味": 10490,
      "没完": 10491,
      "涌出": 10492,
      "淫娃": 10493,
      "清理": 10494,
      "溢出": 10495,
      "火车": 10496,
      "点缀": 10497,
      "狮子": 10498,
      "狼藉": 10499,
      "献给": 10500,
      "留意": 10501,
      "痴痴": 10502,
      "皇后": 10503,
      "眼光": 10504,
      "眼底": 10505,
      "睡衣": 10506,
      "神迷": 10507,
      "穿戴": 10508,
      "立马": 10509,
      "笑意": 10510,
      "索性": 10511,
      "红晕": 10512,
      "绝世": 10513,
      "绝顶": 10514,
      "缓慢": 10515,
      "羞辱": 10516,
      "老家": 10517,
      "肩上": 10518,
      "脱下": 10519,
      "苦笑": 10520,
      "茉莉": 10521,
      "虽说": 10522,
      "装备": 10523,
      "视觉": 10524,
      "许久": 10525,
      "话题": 10526,
      "诡计": 10527,
      "调查": 10528,
      "软弱": 10529,
      "轻柔": 10530,
      "迎面": 10531,
      "这下": 10532,
      "这点": 10533,
      "钥匙": 10534,
      "锦衣": 10535,
      "长叹": 10536,
      "长期": 10537,
      "降临": 10538,
      "震动": 10539,
      "颤动": 10540,
      "首先": 10541,
      "骨头": 10542,
      "黑人": 10543,
      "不知不觉": 10544,
      "年轻人": 10545,
      "img": 10546,
      "愈来愈": 10547,
      "不轨": 10548,
      "丢人": 10549,
      "之物": 10550,
      "之类": 10551,
      "了拍": 10552,
      "了门": 10553,
      "亚历": 10554,
      "任人": 10555,
      "优雅": 10556,
      "你玩": 10557,
      "修炼": 10558,
      "倔强": 10559,
      "充血": 10560,
      "公务": 10561,
      "关上": 10562,
      "关于": 10563,
      "关门": 10564,
      "内部": 10565,
      "出口": 10566,
      "制服": 10567,
      "办事": 10568,
      "只觉": 10569,
      "吃饱": 10570,
      "同情": 10571,
      "向来": 10572,
      "吸入": 10573,
      "喝醉": 10574,
      "夜里": 10575,
      "大树": 10576,
      "大约": 10577,
      "委书记": 10578,
      "宛如": 10579,
      "导师": 10580,
      "导致": 10581,
      "小人": 10582,
      "屋里": 10583,
      "帮帮": 10584,
      "引起": 10585,
      "很少": 10586,
      "怪物": 10587,
      "总算": 10588,
      "悦耳": 10589,
      "情迷": 10590,
      "情不自禁": 10591,
      "惨叫": 10592,
      "我用": 10593,
      "我能": 10594,
      "战争": 10595,
      "所说": 10596,
      "扑通": 10597,
      "打发": 10598,
      "打听": 10599,
      "拍了拍": 10600,
      "持久": 10601,
      "挣脱": 10602,
      "捂住": 10603,
      "掌握": 10604,
      "推车": 10605,
      "推门": 10606,
      "提督": 10607,
      "提示": 10608,
      "摆在": 10609,
      "摸不着": 10610,
      "放声": 10611,
      "教学": 10612,
      "教室": 10613,
      "星星": 10614,
      "服侍": 10615,
      "未尽": 10616,
      "来不及": 10617,
      "杯水": 10618,
      "极大": 10619,
      "梦想": 10620,
      "死不": 10621,
      "殿下": 10622,
      "洞口": 10623,
      "清纯": 10624,
      "湿透": 10625,
      "烈火": 10626,
      "焚身": 10627,
      "父子": 10628,
      "特种": 10629,
      "玉体": 10630,
      "玉女": 10631,
      "甜美": 10632,
      "用来": 10633,
      "瘫软": 10634,
      "盘算": 10635,
      "直挺": 10636,
      "看不到": 10637,
      "眼角": 10638,
      "知名": 10639,
      "知晓": 10640,
      "破天": 10641,
      "确认": 10642,
      "竟是": 10643,
      "紧致": 10644,
      "细腻": 10645,
      "给我": 10646,
      "缘关系": 10647,
      "老人": 10648,
      "考试": 10649,
      "耻辱": 10650,
      "至终": 10651,
      "苗条": 10652,
      "蒙面": 10653,
      "血迹": 10654,
      "裸露": 10655,
      "贴着": 10656,
      "足以": 10657,
      "踉跄": 10658,
      "身高": 10659,
      "躲闪": 10660,
      "轻微": 10661,
      "辛苦": 10662,
      "迫不及待": 10663,
      "闭目": 10664,
      "隐藏": 10665,
      "难逃": 10666,
      "顾及": 10667,
      "风吹": 10668,
      "风韵": 10669,
      "飞快": 10670,
      "高举": 10671,
      "高人": 10672,
      "高气": 10673,
      "什么样": 10674,
      "amp": 10675,
      "卫生间": 10676,
      "丝不挂": 10677,
      "Mi": 10678,
      "her": 10679,
      "上半身": 10680,
      "下流": 10681,
      "下落": 10682,
      "下半身": 10683,
      "不争": 10684,
      "不怪": 10685,
      "不讲": 10686,
      "不谈": 10687,
      "专门": 10688,
      "世家": 10689,
      "两女": 10690,
      "严重": 10691,
      "乳晕": 10692,
      "乳肉": 10693,
      "事业": 10694,
      "人群": 10695,
      "人马": 10696,
      "从容": 10697,
      "伊斯": 10698,
      "传出": 10699,
      "作业": 10700,
      "修行": 10701,
      "兄妹": 10702,
      "冲刺": 10703,
[...]
